FFF8
FFED
FFF5
0006
FFF7
0007
FFF7
000A
0008
FFFC
FFFD
0000
0009
FFEE
0011
0006
000F
FFF3
0003
0000
000D
0004
FFF5
0005
0000
0009
FFF5
FFEB
FFF4
000C
FFF1
FFEC
000D
0014
0013
FFFD
FFFA
FFFB
0001
0000
000F
0002
FFFB
0005
FFED
FFEF
FFEB
0008
000A
FFF5
FFF1
FFF9
FFF0
FFFC
0002
000E
FFF9
000F
FFFE
FFEB
0015
0001
0002
0003
FFFB
FFF5
000A
FFFA
0009
FFEC
FFFC
FFFC
0005
0006
000C
0014
000A
0015
FFFE
FFF1
0004
0009
FFFE
FFFF
0009
FFED
000A
FFF9
000A
FFED
0004
000A
000D
FFF3
0014
FFFC
FFEE
0008
0012
000D
FFEE
0015
FFFC
000C
FFFF
0005
000E
0010
FFFC
000D
0013
FFFA
0013
FFF1
FFF9
0000
FFF0
0001
FFF7
000F
FFFC
0012
FFF0
0010
0000
FFFB
000B
FFFF
0007
0010
0003
FFFF
FFEC
FFFC
FFED
0002
FFF0
000D
FFF4
FFFD
FFFE
0010
0000
000F
FFF7
000F
0000
FFF7
0008
000B
FFEB
FFF4
000B
0001
FFF2
FFFA
FFFC
FFFD
FFEC
000A
FFEE
FFFE
000E
FFF2
0014
000D
FFF2
FFF0
FFEE
FFF7
FFFF
FFF6
0014
000E
000B
FFF8
0000
0005
000D
000A
0005
0011
0006
FFFC
0004
FFF4
0004
FFFC
FFEE
0013
FFEE
FFF0
000E
0015
0001
FFEF
FFFC
FFFE
FFF5
FFF9
FFEE
FFF1
0014
0008
FFEE
000B
0013
0001
FFFD
0014
000D
FFED
FFF7
FFF6
000C
FFEE
0005
0000
0012
FFFC
0004
FFF4
FFF6
FFF5
000E
FFED
0000
FFF7
FFF6
FFF3
FFF2
0005
FFEF
0014
FFEE
0014
FFF0
0001
0012
0011
0011
FFFA
000D
000F
FFF1
0009
0008
FFF4
0001
0013
FFF8
0009
0004
0003
0001
0001
0001
FFFE
0009
FFEB
FFEF
FFF5
0003
FFFF
FFF6
0007
0009
FFF2
000A
FFF9
000C
0010
0008
FFED
000F
FFF0
FFF0
0008
0000
0007
0011
FFED
FFFB
FFF3
FFFC
FFF8
FFF2
000E
FFF3
000D
0015
FFF0
FFFB
FFF9
0009
000E
0005
0001
FFFE
FFF8
FFF0
FFFF
0005
0012
0006
0002
FFEF
000B
0005
0012
0005
0000
FFFA
0009
FFF0
0009
0009
FFF0
0010
FFF0
FFF5
FFFC
0002
FFF5
0014
0000
FFFA
FFFA
FFF5
0009
0003
000D
FFFD
FFF1
FFEE
000D
000E
FFFF
0000
0001
FFF1
FFF4
000C
0007
000E
0012
0012
0014
FFF3
FFF6
FFF7
FFFD
0009
000C
0009
FFF5
000A
0010
0002
000A
0012
0007
FFF9
0008
FFF4
FFED
0015
FFED
FFED
FFFF
000F
FFFF
0005
FFFA
FFF3
FFF1
0002
0001
0010
FFEE
0002
FFF0
0000
0000
FFEE
FFEC
000D
FFFA
0008
0014
FFF5
FFED
FFF0
FFF6
0000
FFEF
FFEB
000E
FFFF
FFF8
0004
FFEF
FFEE
FFF0
0014
0015
0009
0006
0000
0002
FFF5
0003
0005
FFEF
0005
0006
0004
FFFB
0014
FFFE
FFEF
0007
0000
0009
000A
FFF2
FFF2
000B
FFF7
0001
0012
FFEC
0015
FFF2
FFF9
FFFA
FFED
0005
0008
0001
0008
FFFC
0012
000C
0011
000F
FFF5
000B
0000
0007
FFF1
0008
0000
0000
FFFB
FFF7
FFF5
000E
FFF2
0005
0003
0000
0015
FFF6
FFEE
FFFA
0011
0002
0010
0003
FFFA
0013
FFFC
FFFE
0008
FFEF
FFEF
FFFA
0011
0012
0013
0011
FFF2
FFF0
0006
FFF4
000E
FFF0
0002
000E
0002
0002
0013
0014
FFF5
FFFD
0000
FFFB
0005
0014
FFFC
FFEC
000F
FFF1
FFF0
FFFC
FFF8
000A
FFF0
FFF4
FFF3
FFFD
0006
FFFC
0011
FFF4
FFEF
FFF7
FFF9
0000
000E
0008
FFFA
FFF7
FFF0
FFEF
0003
FFF2
0014
FFEF
FFF4
0009
0003
0011
FFEF
FFF1
FFF7
0008
0006
FFFC
FFFD
0008
FFEC
FFF9
FFF7
0009
FFFA
0000
FFF9
0000
FFED
0000
0013
FFF0
FFF1
FFED
FFF0
000F
000A
FFF5
FFF4
0010
FFFA
0000
FFEF
0008
FFF9
FFEF
FFEF
0007
FFF4
0010
FFEF
0010
0002
FFF4
000E
000A
000B
000F
0009
FFF3
000E
FFF6
0003
000C
FFEB
FFEC
FFEF
0015
FFFD
0013
FFEC
FFFD
0011
FFED
FFEE
0006
FFFB
0002
0010
FFEE
000D
000F
000A
0015
0013
000B
FFED
FFF8
FFFC
FFEC
FFFA
0004
0002
FFFC
0007
FFED
FFF9
FFFB
FFF4
0008
0002
0007
FFF9
0001
FFF8
FFFF
FFF9
FFED
0001
FFFE
000C
FFF2
0012
FFEE
000C
0014
FFF6
FFF8
0003
FFF1
FFF7
000D
0014
FFF7
FFFD
0008
FFF6
000C
0010
FFEC
000A
0001
FFF5
000A
FFF1
FFFB
FFFB
0000
000F
FFEB
0014
FFFC
FFF4
0004
FFF3
FFFF
0013
0011
0009
FFEF
FFF0
0011
FFF2
FFF0
FFEC
FFFE
0008
FFF0
0013
FFFC
FFF8
000D
FFFF
FFFD
FFF1
FFFB
FFF2
000D
0000
FFF6
000E
FFED
FFED
0005
0005
FFF9
FFF1
000F
0000
FFEC
000E
0000
FFFA
0004
FFF2
FFEE
FFF8
FFEE
FFF7
FFEC
0015
0010
000C
000F
FFF6
FFF8
0009
FFED
000E
0012
0003
0000
FFF9
FFFB
FFF8
FFF8
FFFB
0000
FFF6
000E
FFFC
FFF4
FFF2
0004
FFF6
FFF4
0005
000A
FFF2
FFFE
0005
0012
0013
000A
0013
000C
0000
000B
0007
000B
FFF4
0000
0000
FFFC
FFFF
FFF4
FFFA
000B
FFF1
FFF2
0003
0005
0003
0007
000A
0008
FFEE
FFFD
000B
0000
000A
FFF5
000D
0010
FFF5
000E
FFED
0002
0007
FFEE
FFF2
FFF7
0015
0014
FFFD
0000
FFFE
0011
FFEF
FFEC
0008
0001
0025
FFF7
0000
FFF0
000F
0006
FFFA
FFF0
0002
0009
FFF4
0015
FFF7
0009
0007
0005
FFF1
0014
0004
FFEC
FFFD
FFF7
FFFF
0015
FFFF
FFF0
0010
000B
FFFE
0004
0004
0001
FFF7
000E
0006
FFED
0011
FFF1
FFF1
000A
0000
0000
FFF2
FFF0
0010
0004
0009
0011
0001
FFF5
000D
FFF4
FFF3
000B
0000
000F
0005
FFED
FFF1
0006
FFEE
0008
0007
FFF5
0014
0011
0004
FFEB
0012
FFED
FFF5
000B
000B
FFF5
0006
FFF4
000D
FFF4
000E
0000
0015
000E
000A
000A
000C
0005
0005
FFFC
0007
0000
FFFC
0003
0013
FFF8
0000
FFFF
FFF7
0007
001A
0009
000D
FFFC
FFF8
0000
FFEF
000F
0012
0000
FFF0
000F
FFEC
0013
FFFF
000B
0008
0006
0004
0008
0025
FFFC
FFFB
0006
0000
FFEF
000F
0003
FFF5
0012
0010
0002
FFF7
0009
0008
000C
FFEC
000B
FFEC
000F
0000
0004
0010
FFEF
FFED
FFED
FFEF
0012
0005
FFF4
FFFC
0006
0009
FFF8
FFF6
FFF6
FFFE
000B
FFF2
FFF1
0012
FFFD
FFF3
0008
0000
FFF3
0003
FFF5
0010
FFF3
FFF4
FFF5
FFEE
000D
000D
FFFB
FFFD
FFF5
0004
0011
000C
FFF3
FFFC
FFFD
0009
000A
0013
000B
0010
FFF5
0005
FFF8
0011
000C
0005
FFFA
0000
FFF9
FFF1
FFFE
FFFA
FFF0
FFFE
0010
0004
0004
FFF2
000C
FFF8
0011
0009
FFF4
0012
0005
0013
0013
0004
0008
FFF7
0000
0000
FFFA
000B
FFEE
FFED
000A
0000
0014
0005
FFED
0000
0015
FFF5
000B
0009
0000
0004
FFFA
FFFF
FFEE
0001
FFF9
000D
000E
0000
FFEC
FFFA
000C
FFED
FFEE
0011
000A
FFF6
FFF2
0013
FFF0
0014
0002
FFFB
FFEE
FFFD
0006
0001
FFF5
0013
FFF4
FFED
FFF8
0010
000B
FFF6
0014
0015
0005
0003
000E
FFF0
000D
FFF1
FFF4
0014
FFEE
0011
0000
FFEB
000C
0008
0012
FFF1
FFFC
0010
0001
000F
FFEF
FFF4
0015
FFFE
FFF7
0002
0007
FFF0
FFFF
0013
FFFF
0000
0010
000C
0013
FFEE
FFFA
FFF3
FFF9
FFF2
FFF3
FFF9
000F
0005
FFFB
FFF8
0011
FFF1
FFFC
000E
FFFA
0004
FFF1
0000
FFF5
0009
FFEE
0000
000C
0003
FFF7
FFFA
0003
0001
FFF9
FFF0
FFFD
0013
000E
0003
0011
000E
FFFA
FFF7
FFEE
000D
0011
0001
FFED
000B
FFF0
000C
0010
0002
FFFE
0009
0004
FFF1
FFF2
FFF4
FFEF
0002
FFFE
FFF7
0003
0013
FFFB
000A
FFF7
000E
FFEC
0005
0010
FFF0
0001
FFF0
FFEF
FFED
0010
0006
FFF7
FFFC
FFF8
0000
0004
FFF3
0006
FFFA
FFEC
0008
0005
0011
000E
FFF3
FFEF
0011
FFF0
FFFC
FFF2
0006
FFF7
FFEE
FFFE
FFFF
FFEF
FFF1
0005
FFF7
FFEF
FFED
0009
0011
FFEF
0013
0010
FFFE
000F
0011
FFEF
0010
0000
FFEE
FFEC
0009
FFF6
FFFD
FFF9
FFEE
000C
FFEC
0012
FFFA
FFF4
0007
000B
FFFA
0006
0011
0005
FFF8
FFEB
000D
0005
FFEC
0014
0009
0013
000F
FFFD
FFF7
000C
0001
0000
FFF0
000F
0014
FFF5
000B
0006
000A
0000
FFEE
0012
0000
FFFC
0011
0004
0009
FFF9
FFF4
FFFD
000D
0007
FFF7
0008
0011
000F
FFFF
FFF6
FFEF
0010
0012
0003
000F
0011
0009
0002
FFFE
FFFB
FFEF
FFF5
FFFB
0008
FFF3
FFFA
FFED
FFF1
000E
FFFC
000F
FFF2
0006
000D
FFFA
000F
000E
0008
000C
0009
0005
0002
FFF0
FFF4
000D
FFF9
FFFD
000D
FFF4
FFF1
0003
FFEC
000F
FFF7
FFFD
FFFC
FFF5
0002
0002
FFEE
000A
0002
FFFD
FFF1
000C
FFF5
FFEF
FFEC
0004
FFEF
0012
0009
FFF7
FFEC
FFF2
0008
FFEE
FFEF
0000
000A
000E
0000
0004
FFF3
FFF3
FFFB
000F
FFF8
FFFC
FFEE
FFF9
FFED
0012
0005
FFF7
0007
FFFD
0012
FFFC
000B
FFFF
FFF2
0014
000B
0013
FFFE
0014
FFF0
FFFA
FFEE
0010
0005
FFF6
000D
0008
0012
FFF3
FFFD
FFF5
0009
FFED
FFEF
0005
FFFD
FFFD
0008
0006
FFEF
FFEF
000F
FFF3
FFFD
0012
FFF3
FFF7
FFFE
FFF6
FFF3
FFF3
0008
FFFE
0000
0000
FFFE
FFF6
FFF0
0000
FFF4
FFED
FFED
0002
FFEC
0012
FFF4
FFFA
0008
0011
0012
FFF9
0001
FFEB
FFF8
FFFC
000E
FFF3
FFED
000B
FFF5
FFFB
FFF5
0011
0008
000C
0015
0001
0013
0004
0006
0001
0009
0004
FFF3
0004
FFF7
0011
FFF7
000E
000C
0008
0003
000E
0004
0001
FFF6
0004
FFFA
0014
FFED
0010
000E
0007
0001
0000
0010
0003
FFF5
000F
0010
000E
FFF7
000B
FFF7
FFF7
000D
FFF1
FFEF
000A
0000
FFEC
FFF3
FFF5
0002
FFEE
0004
FFEC
0006
000B
FFFD
0010
000B
FFF9
0001
0005
0011
FFEC
FFF9
0011
FFF6
000A
0009
FFF6
FFED
0013
0003
000D
FFF5
0003
0010
FFFD
0000
0010
FFF4
000B
FFFE
000E
FFF0
FFFC
0011
FFF7
FFEF
FFEF
0010
000D
FFFD
FFFB
0010
0010
0005
FFF5
0002
FFFB
FFFC
0014
0002
0002
FFFE
000F
0001
000E
0009
0006
FFEF
FFFF
0007
0003
FFFD
0005
FFFC
FFFC
FFF3
0003
FFF7
FFFE
FFEB
FFFB
FFF7
FFEE
FFEF
FFF3
0002
FFF1
FFFB
0009
FFFC
0009
0010
FFF2
FFF6
FFF1
FFF4
FFF5
FFF4
FFFA
0012
FFED
0007
FFF8
0003
0003
FFF1
FFF6
FFF5
000E
0006
FFFF
0005
FFF8
FFEE
0002
0010
0012
FFEC
000E
0006
000E
000B
FFFA
000F
FFED
000D
0014
0013
0012
FFF0
000F
0007
0010
000A
FFEB
0013
0004
FFF4
0008
FFF5
000A
FFF7
0003
0012
0005
FFF8
FFF8
FFF0
0010
0000
FFF2
FFEE
FFFA
0009
0004
000B
0004
000B
000D
000C
0010
0002
0012
FFF4
0013
FFEC
0011
0011
FFF3
FFEB
FFF3
FFF8
000D
FFF7
FFF6
0003
0011
0002
0002
0000
0005
0014
0008
FFEC
FFF5
000E
0000
0000
000B
FFFE
FFFE
FFF6
0008
000B
FFFF
000F
FFF2
FFFE
0000
0013
FFFD
0013
FFF7
FFFC
0003
000F
0000
FFF7
0008
0007
0003
FFF4
FFF5
0014
FFED
FFEF
FFF0
FFF3
0005
000F
0009
0008
FFF4
0008
0000
FFF1
0012
000A
FFFA
FFF6
000A
000E
0001
FFF5
FFFB
0002
FFEF
0001
000F
FFEB
FFEE
FFFD
FFF5
FFFA
0009
0000
FFF5
0001
0000
0013
FFF1
FFF9
FFED
FFFF
FFFF
000E
0010
0014
FFF2
0008
FFFB
FFEC
0010
FFF5
FFF0
0008
FFFB
FFEC
FFF3
0000
000D
0002
0013
FFF3
0002
FFF3
0011
FFF1
FFF5
FFF7
FFF2
FFEF
0002
FFF9
FFFB
FFFB
0002
FFF6
0003
0007
000D
000C
FFFE
FFF3
0000
0000
FFF3
FFF7
FFF3
FFF4
FFF5
0000
FFEE
0001
0000
000F
FFFD
FFFC
FFF0
000F
FFEF
000F
FFF5
0012
FFEE
0004
000A
FFF0
FFF4
0007
FFEC
0006
FFF2
000B
000E
0010
0003
000C
FFFD
FFEF
FFF9
000D
FFFD
FFF6
0000
FFFC
000D
0000
FFFD
0002
0007
0000
0015
FFFC
0007
0002
0007
FFFD
FFFA
FFF5
0009
FFFE
0000
FFFB
000B
0004
000A
FFF3
000E
0001
FFF3
FFFB
0005
FFF3
FFF9
FFFF
FFF8
000C
0006
000E
0002
FFF1
0004
000F
FFFC
0000
FFF4
FFFD
FFF9
000E
FFF0
000D
000E
FFF1
0002
0010
0003
FFFE
0003
FFFC
000C
0014
000E
0010
FFF3
FFFF
FFF8
FFFD
FFFB
0001
0006
FFFC
FFF7
FFF8
FFF7
FFFE
FFFD
FFFD
FFF5
0014
FFFD
FFFA
0003
0010
0014
000F
FFF7
FFFE
0011
0015
FFF8
0000
FFFB
FFF1
0010
FFF0
0006
0000
0013
FFFD
FFFA
FFF7
FFF2
FFF5
000B
FFF1
0002
FFFF
FFEE
FFF9
FFF5
FFF5
FFEC
0008
0006
FFFB
FFF3
0003
000C
0005
000F
FFF4
FFFA
0002
0010
0011
000E
FFF7
0002
FFF7
000F
FFEC
0012
FFF4
0005
FFF1
000F
0014
0003
FFF9
000F
FFF3
000A
FFF1
FFFE
0014
0003
0002
FFF3
FFFF
0011
000B
FFF6
0010
0008
0005
0001
0014
0000
0014
0006
0000
FFFB
0011
FFF6
FFF9
FFEC
FFF1
000C
000D
0013
0014
0009
000E
FFEC
FFF0
0000
0003
FFFD
000A
FFFE
FFF4
0007
0000
FFFE
0006
0014
FFEC
0002
0011
0004
000B
0012
FFEC
FFFC
FFF9
FFF5
FFEE
000E
000B
0006
FFF3
FFF3
0010
000B
0011
FFED
000D
FFED
FFF7
000F
FFF3
0006
FFFA
FFED
000D
000D
FFF9
0010
FFF9
0002
FFF4
FFEF
0001
0008
FFFB
0001
FFFE
0005
0000
FFFF
FFF6
FFFE
0000
FFEB
0010
FFFC
FFFB
FFF0
FFFA
FFFD
FFF9
FFEE
0009
FFF2
FFF2
FFEE
FFF6
FFF2
FFF5
0013
000B
0006
0001
0014
FFEE
0004
FFF7
FFFD
0006
000C
FFEF
FFEF
0000
0002
0014
FFED
FFF2
0012
0003
FFF4
FFF3
0007
FFF0
FFEB
0008
FFFB
0006
FFF0
FFF2
000E
000B
000E
FFFA
000D
000D
0000
FFF8
0004
FFFA
0010
0009
FFED
0014
0003
FFFD
0005
0005
FFF7
000B
FFFB
FFFF
FFF4
0001
0003
0010
FFF5
FFEC
0009
FFED
000E
000B
FFF0
FFFF
FFED
0009
FFEE
0007
0004
FFF5
FFFF
000F
0006
0001
0003
FFF8
FFFB
FFF0
FFF7
0006
0004
0011
FFED
FFFC
0007
FFFE
0001
FFED
FFF1
000D
FFF4
0007
000A
FFFB
FFFA
FFFD
0010
0008
0009
FFF5
0000
FFED
FFEE
000A
FFF1
FFFC
FFF1
FFFE
FFEF
0015
FFFB
000F
0013
0011
0001
FFF4
FFF2
FFF7
FFEE
FFFB
FFFA
FFF0
FFFC
FFE8
000A
0000
0008
0005
FFFF
000C
FFF2
FFED
0015
FFF4
FFED
000B
0006
0014
0002
0004
FFF7
000A
FFF3
0012
0034
0010
FFF5
FFEC
FFF4
0013
FFF7
0013
000D
000C
0010
0001
0018
0015
0014
000F
FFF4
0012
0004
0015
0007
FFFF
FFF4
0007
000E
0000
FFEC
0005
FFEF
000F
0013
000C
FFF2
0013
0007
FFEF
FFF3
0014
FFEB
FFEB
0001
FFF6
FFF1
FFEB
0012
FFF4
FFF6
000C
FFF4
0001
FFED
FFF5
0005
FFF5
0009
FFFE
FFFC
0011
FFF9
FFFA
0000
0014
000A
FFEB
0015
0008
0002
000E
000A
0005
FFF6
FFF9
0013
FFF4
FFFD
0014
0025
0008
0004
FFFF
FFFF
FFEE
000B
FFFE
FFF4
0015
000C
0006
000F
FFED
FFDD
0001
0003
000B
000E
FFFE
0012
0004
0022
000B
FFF1
FFFD
000E
0001
FFF2
FFFB
FFF6
FFFC
000B
FFFF
0004
000B
0009
FFF5
FFF3
0011
FFFC
FFF2
0006
000A
0014
0009
FFEC
0006
000D
0002
0011
FFFC
0006
000E
FFFE
FFFC
0009
000C
FFFF
000A
0000
000F
FFF6
000F
FFFB
FFFD
FFF9
FFEC
0006
FFF5
FFF4
FFFA
0013
0001
0005
FFEE
0011
0005
FFF8
0007
000E
0001
000E
FFF7
FFEB
FFF7
FFFC
FFF6
001A
0012
FFEF
0009
FFFE
000B
FFF9
FFEC
0011
000F
0004
0000
0001
FFEC
FFEB
FFF7
0007
0006
FFED
FFED
0002
0004
FFEA
FFEF
FFEE
0000
FFF4
0014
001E
FFF1
FFF4
0001
FFF3
FFF9
FFEE
0000
0010
0008
000E
0016
0002
0018
FFF4
0015
FFFA
0011
0010
0009
FFFC
0000
000E
000A
000C
FFEF
0000
0003
FFF4
0001
FFFC
FFF5
000E
FFED
000E
FFFA
000F
0008
FFED
0013
0004
0003
0004
FFD2
FFF8
FFF1
0001
0007
000C
0014
FFFB
0013
FFFA
FFFE
0014
FFF7
000B
0001
0009
000A
0002
FFF4
0013
0005
001E
000E
FFFD
000A
0012
FFF6
0002
FFF1
0000
0008
0006
0039
0005
0003
0007
FFF6
0003
0001
FFFE
FFF8
FFE5
0016
0018
0000
FFF0
FFF7
FFF0
FFF5
FFFC
0000
0007
FFFE
0012
0004
0045
FFFA
FFF9
0001
FFEE
FFF3
0003
000E
FFFF
FFCE
0000
0007
0000
0001
0008
0007
FFED
0004
FFFC
0010
FFF3
0000
FFF7
000C
000E
0009
FFF3
FFF4
FFF2
FFFD
0024
000C
0002
FFF7
FFEF
FFEC
FFF2
0006
0017
0008
FFFC
0028
0003
FFEB
0001
0008
0001
FFFB
0008
FFFF
0001
FFF6
0001
000B
FFEF
0012
FFE0
FFFF
FFFE
FFFF
0012
000D
FFFE
0002
0017
FFF2
FFF7
000C
FFF7
FFFF
FFED
0003
0008
FFC1
FFF0
0000
FFFC
0008
FFF7
0003
000E
FFEC
0000
FFF1
FFE4
0002
FFF3
FFF2
FFE9
FFED
0000
0014
0000
0010
001B
FFFA
FFFC
FFF5
FFF3
FFF8
FFF3
000C
0001
FFF5
0009
002F
FFF3
FFF6
0005
0011
FFF2
0011
FFF6
FFF8
FFFB
0011
FFFC
FFF6
0013
FFFC
FFDD
0005
FFF0
FFFC
0003
000E
0009
0004
0020
FFF4
0003
0008
0012
FFFF
000D
0000
FFEC
FFC6
FFF2
FFF9
FFEC
0009
0010
000C
FFF1
FFFE
0010
FFF9
FFFE
FFEE
FFF4
FFFF
FFF2
000F
0003
0002
0000
0000
FFFF
000F
0013
000B
0010
000C
FFFA
000C
0013
FFF3
000D
000D
FFF3
0038
FFEB
FFF2
0006
0011
000B
FFFD
FFFE
0000
FFF7
FFE4
FFEC
FFF5
FFDE
0000
0000
FFEB
0011
FFFF
FFFA
FFFF
000C
FFFD
000E
0009
FFEE
FFF3
0012
FFEC
FFFE
FFEA
FFFA
0004
FFDB
FFF7
FFF8
0001
FFEF
0013
FFFB
000B
0016
FFF8
FFFE
FFF7
0024
0003
FFFD
FFF5
FFF0
FFF3
FFF4
FFFB
0002
000D
000F
FFFF
0003
FFF9
FFF0
0000
0004
FFFD
FFC7
FFF6
0006
FFF8
000F
0006
FFFF
0021
0006
FFEF
0015
FFEE
000B
FFEC
FFFC
000E
FFF5
FFFB
000A
FFEF
FFEF
FFF1
FFDD
FFF3
FFF9
FFF5
FFE5
0008
0005
000D
000C
FFDE
FFF2
FFFD
FFFA
0008
FFED
FFF2
0010
0003
FFF0
0018
0015
FFF4
0016
0012
000C
0002
FFEA
0008
FFEA
FFF2
002B
FFF8
FFEC
FFF8
FFF0
0000
0004
0004
0007
000D
0000
0000
FFF0
0005
FFEF
0006
000B
FFEB
FFEC
0016
000B
FFF5
FFFC
0000
FFFD
FFEE
FFCF
0000
FFFD
FFF5
000D
FFED
0005
FFFA
0000
FFF4
0008
FFE6
FFFC
000D
FFF2
FFED
FFF1
FFDC
0003
0002
FFDC
0002
0006
FFF6
000D
0014
FFFD
0010
0038
0009
000A
FFF3
FFFA
FFE9
0005
FFFD
FFFB
0011
0033
FFF3
0011
000E
0019
0009
FFEB
FFF9
FFE6
0001
FFED
0026
001D
002E
000B
FFEB
0013
000A
FFF6
0031
FFFB
000A
000C
0006
FFFF
FFF9
FFBA
FFF3
FFEC
FFFD
0015
FFF7
0003
000F
FFDF
FFFF
0000
FFF7
0013
000D
0002
000E
0011
FFEE
000A
FFFD
0008
FFEE
001B
FFFD
FFFD
0006
FFF3
0012
0015
FFEC
FFF1
FFF9
000C
FFF5
FFF3
000C
0013
FFF9
002C
000D
0014
0004
FFF8
FFEA
FFF0
000C
FFF4
FFF7
000E
0010
0019
0020
0007
0003
0015
FFF5
0014
004C
FFF5
FFFF
0008
000D
FFEC
0009
FFC4
0008
0001
FFFD
FFEE
0013
FFED
0010
0015
0004
FFF2
0000
FFF0
FFF2
FFF4
0012
0013
FFE0
0000
0001
FFF6
000E
FFFF
FFFE
FFF7
0010
000A
0006
0001
0001
0000
0000
FFEB
FFEC
0008
000C
FFEE
000E
003D
000D
FFF9
FFFA
0012
FFF0
000A
000E
FFF9
FFED
0000
0002
0021
FFF7
FFFF
0012
FFF2
FFFB
0000
001F
0000
0005
000A
FFFB
0009
FFF3
FFEA
0006
FFFE
FFF5
0013
000C
0010
FFEF
0059
FFF4
FFF2
FFFB
FFF1
000A
FFFA
0014
FFFF
FFC4
0002
FFFB
FFF6
FFFD
FFF7
0011
0013
0005
0002
0010
FFE9
0007
000E
FFED
0011
FFED
0003
0004
FFF3
0003
001A
0013
0000
0012
0001
000C
000E
FFEB
FFEB
FFF0
FFF3
0010
0034
FFF8
FFF1
0006
FFF5
000F
0004
0024
000A
000D
0001
FFFC
0010
0011
0000
0012
FFF5
0000
0008
0003
FFEC
FFF7
006A
000F
0008
0000
FFF9
0013
0012
FFF4
0008
FFC6
FFF2
FFFB
000B
0015
0006
000A
0006
FFE7
FFFE
FFF1
FFE0
0004
FFFB
0012
0003
FFFA
FFF6
FFF8
000F
FFF8
0016
0000
0011
FFF0
FFF4
000A
0012
0007
FFE4
FFF6
000D
0010
003D
FFF6
000B
0006
FFF1
FFFD
000A
0040
0004
0007
0002
FFF6
0012
0007
FFCE
0000
FFF2
000F
FFFF
FFF5
FFEE
FFF7
0059
0012
000E
0000
0012
FFED
000D
FFED
0009
FFDE
FFFA
0009
FFF0
FFF8
FFF1
0003
FFF2
FFF5
FFF6
0014
FFE4
FFF5
0009
FFF4
FFF4
FFF4
0012
0013
FFF3
FFF0
000E
FFED
FFEB
FFEF
0013
FFF1
0010
000C
0006
0005
0014
000F
003E
FFEB
FFFB
0007
FFF8
FFF7
000F
002F
000B
0004
0012
FFFB
FFFB
FFFF
FFD9
0007
0012
FFFA
000B
0002
0012
000E
0036
0007
0004
0007
FFF9
0013
FFFE
0009
000E
FFDE
FFED
FFF1
FFF3
0000
0009
FFF0
0012
FFF5
FFEE
0002
0006
0007
0002
0008
0012
FFFD
FFFB
0006
0005
FFEF
001A
0015
000F
FFF4
000D
0012
0004
0009
FFF8
FFFF
000D
0010
003A
FFF8
0000
FFFB
FFFC
0002
FFFB
000D
FFFE
0010
FFF4
FFEF
FFFE
FFEF
FFDD
0015
000C
0000
FFF1
0013
000F
FFF0
0037
FFF3
FFF3
FFFF
FFF4
FFF1
FFED
FFF1
FFFD
FFD2
FFFF
FFFC
0012
000D
FFFB
000E
0014
FFEB
0004
000C
FFFD
0014
FFF3
0001
FFF5
0014
FFF4
0007
FFF5
FFF3
001F
FFEC
0012
0015
0007
0004
FFF5
FFF1
FFF4
0011
0000
FFFB
0024
0003
000F
FFFD
0004
FFF5
FFF8
0015
FFED
FFEF
000B
000E
FFF5
FFF4
FFDA
000A
FFED
000E
0014
FFFE
0002
0014
0052
FFF9
0007
FFF1
0002
FFF2
FFF0
0013
FFF6
0010
000B
0011
FFF7
0000
0010
FFF1
FFF3
FFF7
000F
0009
0009
0003
0011
0010
FFFF
000E
FFF5
FFF8
000E
FFF7
FFF9
FFFF
0015
FFF3
0006
FFEB
FFF9
FFFC
000F
FFFB
FFEB
0004
000E
FFF7
0009
FFF0
FFF6
FFFE
FFF0
FFFB
FFF1
000F
000A
000F
FFF0
FFF7
0004
000C
0000
000C
FFED
0002
0008
FFF1
FFF7
FFFF
FFEB
0011
000C
FFF7
0005
FFF5
0005
FFF8
0001
0013
FFF3
FFED
FFF7
0002
FFFB
0000
FFFF
0011
000E
FFFB
FFF4
FFF3
FFFD
0012
0002
FFF4
FFFF
000D
FFF7
FFEE
0002
0011
FFEE
FFFF
0014
0009
0007
FFF3
000B
0009
0004
0005
FFEF
FFFF
FFF6
000C
FFF5
0010
0004
0009
FFF4
FFF0
FFF2
FFEE
FFF0
FFEE
0004
0014
FFF4
0006
0008
000B
000F
FFF8
0009
000D
FFFD
FFF3
0009
0011
FFEC
0011
000A
FFF3
FFFB
000E
000B
0006
FFF2
0010
0013
0009
0012
FFEE
FFFF
000F
0002
0001
0009
000D
FFED
0009
FFEC
FFEC
FFFF
0011
0005
FFF6
0013
0006
FFFD
FFFD
000C
000C
FFF1
FFF5
FFF3
0005
FFFF
FFEB
0006
FFEC
FFF3
0009
FFFE
0008
FFFB
FFED
FFF5
FFF7
000E
FFF0
0002
FFFE
000A
0000
000F
000D
FFF9
FFFF
0009
FFEB
FFF0
000C
FFFD
000E
FFF6
0010
0000
0000
0008
0012
0010
0011
FFFD
0004
FFEF
0012
FFFF
FFF5
FFF8
0003
0007
0003
0001
FFF7
0000
FFF4
0004
0006
FFFB
000F
0014
FFF7
FFF9
FFF5
000C
0013
FFF2
0014
FFEF
FFEF
FFFE
FFF4
0009
0009
FFF6
000D
0003
000E
0010
FFED
000E
000F
FFF5
0013
0015
FFF3
0001
0003
FFFD
000A
0011
FFF9
FFEE
0010
FFEC
0000
FFF6
FFF9
0005
0015
0004
000A
FFF4
FFF6
0002
FFFC
FFFE
0000
FFF4
FFFC
FFED
FFF4
FFFB
FFF2
000C
FFFC
FFF3
0008
000C
FFFB
0007
FFFE
0011
0011
0014
FFEE
FFF8
FFEB
FFFB
FFEB
FFEF
FFEB
FFED
000A
FFF6
FFF2
0009
0010
FFF2
0007
000C
000D
0012
FFFE
FFEE
000A
000F
0008
000C
FFF7
0010
0010
0007
FFF1
0000
0013
0001
FFFD
FFF6
0011
FFF0
FFFB
FFF7
0012
0012
0011
FFF5
0011
FFEE
0000
0004
FFEF
000F
FFFA
000A
0014
0009
FFF3
0001
0003
0003
FFFE
0000
0000
FFF1
FFEF
000E
0002
000E
FFFB
0008
000E
FFED
0007
FFEF
0010
FFF6
000A
FFFA
0012
FFFF
0004
0002
FFF4
0005
FFFA
FFEB
FFEC
0002
000D
FFF4
FFFE
0011
FFF1
FFFB
FFED
0000
FFEE
FFF0
0007
FFF8
FFF9
FFF0
FFEF
FFFC
0002
FFFC
FFEE
0007
0005
FFF5
FFFC
FFFC
FFF3
FFFA
FFF2
FFF4
FFEE
000D
0015
FFF4
000C
0004
0003
000A
0000
000F
FFF3
0000
FFFF
FFED
FFFB
FFF4
FFEF
0004
FFF5
0003
000A
0014
000D
0007
0001
FFFC
0000
FFEC
0014
0003
FFFC
0005
0015
0008
FFFB
0000
FFFA
FFF0
FFFC
FFFB
000F
FFED
0004
0011
0003
0007
FFED
FFE5
0003
0005
FFF7
0012
0015
FFF8
0012
FFE3
0012
FFFA
000F
FFF2
000D
FFF6
FFF6
0001
0000
0014
0008
0014
0009
FFF4
FFFF
0011
FFFC
0005
FFEB
FFF6
FFF9
0012
0002
0005
FFF2
0000
0002
0007
000D
0027
000E
0002
000B
000B
000E
0000
FFEC
000A
0000
0006
FFED
0008
0011
0002
0010
0005
0009
0007
FFFE
0001
FFF5
0015
FFED
FFF9
0003
0000
0000
FFFE
0003
FFF2
FFEC
000E
FFFD
FFE5
0001
000C
0000
0000
FFF5
0015
FFEE
FFF7
0013
0024
FFFD
0006
0003
FFFF
0009
FFF9
0012
FFF7
FFF5
000E
000F
0006
FFFC
FFFC
FFFB
000D
0000
0011
FFEB
FFFA
000B
0013
0009
000C
0004
FFF1
0015
FFEE
0003
0002
FFED
0001
FFFA
FFF6
0008
FFF8
FFF7
FFED
FFF9
FFEC
0009
FFF3
FFEC
FFF8
000D
0006
FFEE
FFEC
FFF3
FFF4
FFFB
0003
0004
0002
0000
FFF3
0014
FFF4
FFEF
0014
0000
0007
0007
000A
FFF2
0006
0007
0008
0013
FFFA
0014
001B
FFF2
FFF8
FFFF
000B
000B
0013
0009
0014
FFF4
000A
FFF2
0009
0013
0009
0014
FFFE
FFF1
000D
0002
000D
0005
0007
0008
000D
000D
0009
0001
FFF2
FFF1
FFFC
000A
0001
FFEC
002B
FFF4
FFE2
0006
FFFF
0013
0005
FFED
FFF4
FFEB
0013
0006
FFEF
FFF1
0005
FFF0
0008
000A
FFF1
0014
FFEC
FFFD
0010
0008
FFFE
FFF8
0014
000F
0006
FFF8
0024
FFFD
0000
0014
000B
FFEF
FFF9
0006
000D
0006
FFF2
000E
002F
000F
FFF1
000B
000A
000F
FFF8
000F
000A
0018
0014
FFFA
0015
000A
FFF5
000F
0013
FFFF
0004
0009
000D
FFF3
0026
0014
FFE5
0015
000A
000C
FFEE
0004
0004
FFDF
000E
FFF5
FFDF
0008
0009
0005
FFF3
FFF5
0011
000A
FFF6
0014
0035
0002
000B
FFF3
FFED
0003
FFF0
FFF4
0034
FFEC
0012
FFF2
0006
FFF6
0004
FFF1
FFEB
FFEE
FFF7
000E
0034
0015
0006
0001
0011
0000
FFF7
FFFF
000A
0015
0000
0013
0015
FFFC
FFF1
FFEF
0007
FFFF
0013
FFF8
0009
0012
0002
0009
0000
0008
0015
FFF4
0012
000F
FFEE
FFDB
FFFA
0006
0000
0007
0009
FFEE
0000
FFF9
FFFF
FFF6
FFE8
0013
0020
FFF3
FFF9
000A
0011
FFEE
000B
FFF6
0021
FFF9
0015
FFF8
0003
FFF1
FFF9
0003
0006
FFF9
FFFD
001F
003E
0030
0011
0012
000D
FFFD
FFFB
FFF3
FFF3
0013
FFF0
000D
FFF0
FFFD
FFDD
0010
0009
000F
FFED
FFF2
FFEC
0001
0000
FFF3
FFF3
0007
001F
FFFE
0000
0010
0002
FFD7
0007
FFF4
FFEB
FFF9
0004
FFF4
FFED
FFF5
0010
FFDC
FFDD
FFED
FFFF
000F
0013
0011
FFF2
000A
0000
0006
0011
000C
0002
FFF7
0010
FFED
FFEC
FFEB
FFF2
000E
0010
000E
0069
002D
000E
FFEF
FFF4
0001
0007
FFFC
FFFC
FFF5
FFF9
0002
FFF3
FFFC
FFC6
FFEB
0011
FFFA
FFF3
FFFF
FFEF
FFF4
FFEC
000C
0012
FFED
0047
0006
0000
000B
0014
FFCB
0001
FFF4
FFE6
FFF1
000B
FFF8
0000
0002
000B
0000
FFF7
0013
000F
FFFB
FFF7
FFEF
FFFC
FFFF
FFFE
0009
000F
FFFC
0007
000C
0002
FFEC
0013
FFF8
000B
FFF0
0009
0017
0061
0043
FFEC
FFF8
0004
0006
0006
FFDE
FFE7
000F
0013
FFEC
0006
FFF1
FFCC
0000
FFF4
0008
FFEB
0010
0010
0004
FFE9
0002
0034
FFF6
002C
0002
FFF5
FFFB
FFEE
FFC7
0002
FFEA
FFFC
FFF0
FFF7
000B
0010
FFF8
000C
FFF5
0008
FFED
FFFF
FFE9
FFEE
000D
FFFB
000C
0000
FFF0
000D
FFF3
000F
000E
0012
0012
FFF5
0000
0014
000A
FFE9
0012
004F
0015
FFF5
FFF8
FFFF
0005
0004
FFE9
FFFD
0004
FFF8
FFFF
0011
FFFD
FFE1
0013
000B
FFF9
FFF2
0012
000C
001A
001A
0007
FFF4
FFFD
FFF4
FFFC
0006
FFFA
0004
FFB2
0009
FFEA
FFEE
FFE6
FFFA
0011
FFEF
FFFA
0007
FFFA
FFFE
FFF5
FFCC
000F
FFF6
FFF5
FFF0
FFF1
0005
FFEF
0026
0000
FFED
0007
0013
0001
000C
0012
FFF4
FFF8
0007
0041
FFFF
001D
000D
000C
FFEF
0012
000C
FFF6
FFEF
0006
0007
FFEA
FFED
FFEF
FFCD
FFED
0006
0009
000B
0008
FFFB
FFF3
0018
FFF1
FFE3
FFF7
FFD5
000E
FFF3
FFF4
FFFA
FFAB
FFED
0004
FFDE
FFEC
0000
0006
FFF2
0005
0009
FFFA
FFFF
000C
FFE5
0000
FFEB
FFFE
FFF3
0003
FFF2
FFED
0037
0000
000B
0000
0000
0008
FFEE
0009
000F
0013
FFEC
0012
FFEB
FFFD
0014
0001
FFEF
FFDD
FFFB
0018
FFF3
FFF9
FFF8
0004
FFE5
FFFF
FFD8
0004
FFF6
FFF5
0004
FFFC
FFF6
FFEC
FFE8
FFF9
0021
FFEC
FFE3
000D
0003
000A
0005
FFA9
000A
FFE9
FFFE
FFEA
FFF9
FFF1
FFFB
0006
FFFB
FFF0
000E
FFF6
FFF5
FFF5
FFFB
FFF1
0009
0013
FFF0
000D
0018
0015
FFF7
0011
FFF3
FFEF
FFEE
FFF6
FFFE
FFF3
FFF1
FFFA
FFF8
0000
FFEB
0001
FFEC
FFE0
0003
FFE9
FFF5
0014
0013
0004
FFFE
FFED
FFBB
FFF2
FFFE
0000
0010
FFFB
FFF1
FFFD
FFFA
FFFC
0012
FFF3
001D
FFF8
FFE2
FFF7
000A
FFD4
0009
0006
0000
FFF3
001F
FFFC
000E
FFF1
000C
FFF8
000E
FFF0
FFE3
FFF5
0014
FFF4
FFF3
FFFC
FFF6
0012
0026
FFFC
FFF0
FFFD
FFF2
000A
0012
0000
0015
FFFD
FFE9
FFD3
0011
FFE8
FFF3
FFEF
0013
FFF9
FFF3
0025
000B
0000
0008
0000
FFF2
000D
FFE4
000F
0009
FFFE
0007
FFF6
0014
0012
FFF3
FFEB
0002
FFF3
FFED
FFF2
0002
FFF6
FFED
FFC6
0007
FFFA
FFE4
FFF8
FFF6
FFF9
000B
0017
0009
002C
0015
000D
000A
FFF0
FFF3
FFE8
0013
0002
000C
FFF8
0001
0012
000D
FFE8
FFFF
FFFD
0012
FFF4
0009
FFEE
FFFD
FFBA
0016
001E
FFEC
FFFB
0003
FFE8
0012
0027
FFEE
0008
0006
FFEE
FFF0
FFF5
FFBF
0000
FFF4
0007
FFF9
FFF1
FFF1
FFF1
0013
0007
FFEB
FFF2
FFFE
FFEB
001D
FFF4
FFF4
FFF8
0010
0005
0000
FFF3
FFFA
0003
FFFC
0010
FFF8
000F
FFED
FFFB
001C
000A
FFE7
0005
FFF2
0005
FFFC
FFF6
001A
FFFD
FFF4
000D
000F
FFEA
FFF0
FFEF
000E
FFEE
0003
FFE4
0020
0024
000C
FFF7
000F
FFD7
FFFB
0056
FFE4
FFEF
000D
FFFD
FFF4
FFED
FFFB
FFF3
FFEC
FFFF
0000
000F
FFF1
FFED
0004
FFF1
FFDD
FFF9
0008
FFF3
FFEF
000A
000D
000F
FFF1
FFF3
000D
FFFB
FFE6
0010
0007
FFEB
FFF5
FFFE
0007
FFEC
FFFB
000A
0004
0009
FFEC
0012
0009
FFF3
0018
FFF5
FFED
FFFA
FFEE
FFFD
000C
FFFD
0004
FFF4
FFF9
FFB9
0019
0018
000C
FFF2
0014
FFE6
FFF7
0056
FFD2
FFF9
0012
000A
000A
0008
FFE1
0006
0010
FFFB
000D
0000
000B
FFED
000E
0003
FFD3
0012
0010
0002
0006
FFF2
0011
FFE5
0000
FFFE
FFEE
FFEF
FFDF
0012
0006
FFE6
FFF7
FFF3
FFE4
000E
FFFE
FFF2
000F
FFFA
0000
0002
0009
000F
0032
0000
000D
0013
0012
FFF0
FFED
FFF2
0004
0003
FFF7
FFDA
0015
FFC4
FFF8
FFF6
FFFC
FFFD
0005
0056
FFE4
FFF8
000A
0003
FFEC
0000
FFD4
FFF3
0003
000D
FFF1
0001
0003
FFEE
0037
000F
0002
FFFA
0001
0010
0008
0013
0018
FFE5
FFF5
FFED
0007
FFFF
FFE8
FFF2
000D
0003
FFEF
0002
FFFA
0004
FFF3
FFEF
FFF0
0012
FFEE
FFFA
0005
FFFF
0008
0002
FFF8
FFF1
FFF7
FFFB
000E
000F
FFFC
FFF8
0010
FFD6
001B
FFD7
0001
0005
000F
FFE6
0001
0018
FFE5
000C
0010
0015
FFEE
FFF3
FFEA
FFF6
FFF1
FFFE
FFF2
FFF2
FFF2
FFEE
0048
FFFA
0022
000F
0014
FFEE
FFF0
0006
000F
FFE0
FFFA
FFF6
0000
0017
FFFB
FFF4
0007
FFEB
0002
FFEE
0000
0004
FFFF
0008
FFFE
0009
0008
0009
0010
FFE7
0012
0000
0006
000C
0004
0011
FFFD
FFF5
FFF9
0007
0001
0005
0039
0001
FFF7
FFF3
FFF1
0015
FFF0
000D
FFF0
FFF1
0003
FFF0
FFEE
FFEC
FFE0
0003
FFFD
FFEE
FFF9
0013
FFEE
0015
0042
FFF2
0007
FFFD
001B
000F
000C
FFF0
0000
FFDE
0009
FFFA
FFF0
0006
FFEE
FFFD
0003
0001
FFF9
FFEE
000C
FFFE
0023
0000
0004
0008
0003
FFF5
FFFB
0009
0025
0009
0003
FFF2
0006
0008
FFFB
FFF2
FFF9
FFF4
0006
000B
002F
FFE2
0012
0009
000D
0024
0008
0028
FFF0
0002
FFF1
0016
FFF8
0011
FFBD
0014
0012
FFFD
000E
0007
FFFC
FFF4
0079
FFE7
000F
000B
0019
0003
000F
FFFD
FFEE
FFC2
0008
FFFF
0012
0016
0006
0008
000B
FFEE
FFF7
FFFA
0005
0013
002B
FFF7
000C
000E
FFF6
0008
FFF7
000F
0008
FFED
0000
FFF4
FFFA
FFFD
FFEB
000A
0004
FFF0
FFFB
0005
0032
FFDD
0012
FFEC
FFF6
000D
0011
000F
0000
000B
000B
FFF5
FFFA
FFFE
FFD1
000F
FFFD
0005
000B
000A
FFEE
0008
0052
FFFC
FFF4
FFF7
0001
FFFE
0005
0002
FFF2
FFF6
0005
FFFC
0008
FFF7
000F
0015
000C
FFFA
FFF6
FFFF
000B
FFF4
FFF1
FFEB
FFFE
FFF7
0009
FFF0
FFF4
0010
0010
FFFF
0008
000D
FFEF
FFF8
000E
0001
0007
FFF3
000C
0027
0013
FFF9
0005
0000
FFF1
FFF8
0008
002C
FFEE
FFF4
FFEC
FFED
FFFA
0010
0001
FFFE
000C
FFEE
FFF5
FFF1
FFFC
000F
0001
0014
FFEA
FFFD
FFFE
FFEB
FFF7
0002
FFF3
FFFA
0005
0003
FFFA
FFF0
FFFF
0003
0009
FFFC
FFF3
0012
FFED
FFEE
0011
0001
0000
0011
FFFB
FFFD
FFFC
000E
0000
FFFA
0007
0005
0003
FFEC
FFF6
FFF6
FFF6
FFF2
0000
FFEF
001B
000E
FFED
0014
0002
0000
FFF6
0003
000F
FFF6
0002
FFFA
0015
000D
FFFF
0007
FFFB
FFFC
FFFC
FFF6
FFF8
0011
FFD4
FFF0
0012
FFF5
0005
000B
FFF3
000F
FFFB
0014
0009
0006
000D
FFF3
FFEF
FFFD
FFFB
0001
0001
FFF7
0007
000C
FFF8
000F
0000
FFFC
000E
FFFD
000A
FFFB
000E
0000
FFF8
0009
FFF9
000A
FFFB
0010
FFF7
FFF8
FFFB
FFF0
0003
FFEE
FFF6
0003
0013
FFF5
000A
FFFF
FFF1
FFF5
000E
FFF1
FFF1
000E
0001
FFFD
FFEC
0007
FFF2
0000
FFEF
0006
FFFF
FFED
0006
FFF0
000C
0005
FFF9
FFFC
0006
FFED
0006
0005
0005
000A
FFF3
000F
FFFF
000C
FFED
FFFF
0011
0007
0006
FFFF
FFFA
FFF9
FFF8
FFEC
000B
0011
FFF2
000D
FFFA
0005
000B
FFFB
FFF6
FFEC
0002
0005
0015
FFEB
0013
0001
FFFB
0014
FFFE
FFF6
FFFA
0012
FFF2
FFF9
0009
000F
0009
FFFC
FFEE
000A
FFFC
0000
FFF1
FFF1
0002
FFF1
000E
FFF4
000F
0000
FFFF
0013
0000
FFEF
FFFD
0008
FFEE
FFF5
FFFA
0002
FFF4
FFF8
FFF4
0004
FFFE
FFFA
FFF2
FFEE
FFFB
0010
000C
FFED
FFEE
FFF8
0007
0009
FFFB
FFEC
0005
0000
FFFF
FFF5
000D
FFF7
000E
0001
FFEC
0006
0006
0002
FFF7
FFF8
FFFF
FFF4
FFEB
FFEB
000D
FFF5
FFF1
000D
0014
0005
000B
0001
FFF2
000C
0013
FFEB
000F
FFFB
0004
FFED
FFF7
0013
FFF7
000E
0006
0004
FFF7
FFEB
0008
FFFB
FFFE
FFF1
0004
000E
FFF7
000E
0008
FFF4
FFED
FFFD
FFFE
FFFA
0005
FFEF
FFFD
0015
000A
0006
0000
FFFA
0010
FFF9
0009
0015
0002
0009
0001
000D
FFF2
000A
000C
0000
0011
0005
FFFE
FFFC
FFEE
0003
0006
FFF0
0013
0004
0002
0003
000F
0014
FFF0
0000
FFF6
FFF0
FFF2
000F
0014
0002
000C
FFF7
0008
0002
000D
FFFE
FFEE
FFEF
0014
0000
0002
0015
000B
FFF4
FFF9
0003
FFEF
0013
FFF9
FFEE
FFFB
0008
FFF1
FFF3
0001
0010
FFF2
FFF5
0017
0007
0008
FFFD
FFFD
FFFB
0000
000A
0001
0002
0000
001F
0003
002F
000C
FFEC
000C
0008
0005
0008
0006
FFF8
FFF6
0000
FFF2
FFF6
FFEC
0013
000E
0007
000E
FFF8
0003
0012
FFEF
0005
0007
FFF0
0009
000C
0014
0001
FFFD
0000
FFFB
FFEB
FFDD
000D
0009
FFF8
000A
FFFA
FFEE
0008
0014
0003
001F
FFED
FFF7
FFEE
000E
FFFD
FFED
FFED
0000
FFF9
FFF1
FFF2
FFFA
FFF9
FFF6
0000
FFF3
FFFF
FFF6
FFF4
000B
0032
0000
0008
0005
0003
FFFC
FFEC
FFEC
000B
0008
000F
FFF9
FFF7
FFF0
0014
FFF6
FFFC
0000
FFF3
0008
FFEF
000F
0007
0011
0004
0009
FFED
FFEE
FFEC
FFF8
FFEA
FFF3
000B
FFE7
0009
FFF5
0006
FFF3
0001
FFFF
FFF4
FFEF
FFEE
000B
FFEF
000F
000B
FFFD
0009
0000
000D
001A
FFF3
0002
FFE6
FFEF
0000
0007
0006
FFF0
0012
FFEC
0008
FFEE
0011
000A
0007
0010
0009
0005
0003
FFFB
FFEE
FFED
000D
FFF5
0007
FFEC
FFEF
FFED
0014
000D
000E
FFF0
FFF1
0012
FFED
0002
0001
001E
0002
FFFB
FFF7
FFEC
FFE4
0000
FFEE
FFF2
FFF1
FFFE
FFFB
FFF2
FFFE
0006
000D
0011
0003
0015
FFEF
000E
000A
FFF0
FFEF
FFFA
0004
0013
FFEF
0012
000B
0012
FFF0
0001
FFFD
FFF7
0008
FFF1
0009
002C
FFEE
0001
FFFB
0000
0012
FFF0
FFFD
FFFB
0008
000E
0005
FFF2
FFF8
0001
000D
FFF9
FFEE
FFF4
FFF6
000E
FFDB
001B
FFF9
FFDE
FFF8
FFDC
000C
0011
FFFD
0002
FFC4
0005
0007
FFDA
0016
0006
0014
FFF8
FFFC
0011
0012
FFF6
0013
FFE4
0011
0000
0007
0004
FFF3
000F
FFF6
002B
000C
FFFA
FFEE
FFEB
0012
FFFE
0004
FFF6
000C
0012
0017
0035
000E
000C
0000
FFF4
000D
FFF1
FFFB
0012
0014
0009
0001
0005
0002
FFD3
0001
FFFE
FFF1
FFF3
FFEB
FFFC
FFF7
0011
FFF0
FFF6
0002
0005
0010
FFF8
FFFC
FFFC
FFC0
0011
0006
FFEE
0012
FFFD
000C
FFEF
0002
FFF8
0000
0017
FFF6
FFFD
000C
0010
0011
0003
0002
0005
FFF8
002F
FFF7
FFF5
FFF1
FFF9
FFFD
0004
0000
0013
0010
0010
000F
FFEB
0026
0006
0000
FFFE
0012
0010
FFF4
FFFA
FFF6
0007
0009
000D
FFFF
FFF0
FFFA
FFEF
FFF9
000D
0001
0004
0002
FFF0
000A
FFD8
001B
000E
FFFE
FFEE
FFF6
FFF6
FFA2
0008
FFEB
FFF6
0005
FFF6
FFFA
FFFB
0001
FFEA
FFE2
0010
FFF7
FFD3
0000
0000
0008
FFFA
FFF0
0008
FFF7
0029
0011
0010
FFFE
000B
000E
000F
0004
0005
000B
FFE7
000D
0018
002E
0012
FFED
0005
FFFC
0001
FFEB
000B
FFF1
0000
0010
FFEF
FFF6
FFDD
0013
FFFB
0008
FFF8
000F
FFFB
0010
0015
0007
FFD7
FFF9
FFF3
000F
FFFB
FFEA
0008
FFCB
FFF5
FFE1
FFFE
0007
FFFE
FFF3
000D
0003
FFFA
FFF5
FFFF
0009
FFC1
FFFE
FFF8
FFEF
0001
0003
0009
FFF0
0020
FFE8
001C
FFFF
FFEE
000D
FFF8
000E
0018
FFF8
FFF5
000F
0003
0008
000A
000F
000F
0004
000D
FFCD
FFD6
000C
0009
0009
0009
FFF9
FFD9
0010
FFF6
FFFB
FFF2
FFFF
FFEC
FFF6
FFF9
0009
FFF3
FFFF
0027
FFF0
FFDF
000A
FFE3
FFE0
0000
FFFC
FFFA
FFFC
0013
FFFD
FFFA
FFF5
FFFE
FFFF
FFF2
FFF5
FFE6
0005
FFFE
000B
0006
0015
0007
FFF4
000D
FFF6
000B
000E
0007
FFEE
FFEE
0013
000F
0000
FFEB
0016
0011
0018
0018
0009
000E
001A
FFE5
FFD7
FFDC
FFFD
FFF5
0000
0005
000E
FFCF
FFEC
000C
FFF2
FFF9
FFEF
0000
000C
FFF5
FFFC
FFE5
0004
0017
FFFC
FFE6
0001
000D
0001
0000
FFFA
FFE5
FFF4
0007
000D
FFED
FFF8
FFF1
FFD8
0004
FFF9
FFF2
0008
FFF8
FFF4
0000
0008
0000
FFEC
0013
FFFA
0002
000D
0004
0011
FFFD
0005
FFF8
0015
0001
0015
FFFF
0015
FFFF
FFFC
FFF7
0002
000B
FFC5
FFEF
FFF9
0000
FFF2
000C
000E
FFD4
000C
0010
000A
FFF6
0000
0007
FFE9
001F
0007
FFE7
0003
0026
0002
FFF6
FFF6
FFF6
FFD1
FFFB
FFF9
FFDD
0000
0005
0000
FFF1
FFF0
0009
FFEB
000C
0012
FFEA
000A
FFFE
0008
0003
000F
FFE8
0010
0020
000A
FFFA
0009
FFEF
FFF9
FFF5
000D
000E
FFF2
FFF2
FFF4
FFF2
FFF8
000D
FFF9
FFF6
0013
000C
FFEB
FFDF
0007
001C
000C
FFF1
FFF7
FFA1
FFF5
FFF6
FFFF
FFF6
0003
FFF1
FFF7
FFD2
FFFB
FFF8
FFFB
FFF3
FFEE
FFCD
0006
FFFA
FF86
0005
0001
FFC3
FFF8
001B
0000
0000
0000
000F
000A
FFF0
000C
FFF2
FFF1
FFF0
FFF1
FFE2
FFF3
FFF1
FFFE
0027
FFF9
0019
FFED
0008
FFF3
FFF2
0001
FFFF
FFF7
FFE2
FFFD
0004
FFFA
FFF2
0009
FFF3
FFD3
0006
000F
FFE2
FFF7
000E
000F
FFEB
0006
FF8B
0010
FFF2
0001
0002
0009
FFF4
FFED
FFED
FFEB
0006
FFF9
0010
FFF0
FFC4
0005
FFF5
FFCE
000C
0005
FFDD
FFED
0015
0003
000C
FFF0
0000
FFE8
0022
FFFD
0003
FFF7
FFEB
FFE8
FFF1
000D
FFF8
FFFF
0003
000E
FFFE
FFEA
FFEC
FFF4
0012
FFEB
0006
0001
0006
FFE0
0004
FFCE
000A
FFEF
FFF4
FFCB
FFEB
FFF5
FFE3
FFF5
0013
000A
0004
FFF3
FF8B
0000
000C
FFF1
0002
0004
FFEE
FFDE
000C
FFFD
0000
FFE0
000F
000E
FFE2
FFF6
FFFB
FFA6
FFE9
FFF2
FFE9
FFFC
0007
FFF1
FFEF
FFF5
000D
FFEE
0020
FFF9
FFE4
FFFD
FFFE
FFF9
0007
000A
FFFD
FFEB
FFF6
FFF1
FFFF
FFEB
FFED
FFEA
0001
0003
0002
000F
FFEE
FFE7
0008
FFE0
0011
FFEF
0003
FFB5
FFFB
FFF7
FFDB
FFF3
0000
0006
0009
FFFB
FF97
000C
FFFA
FFE7
FFF1
000C
0006
FFD1
FFE7
FFEF
FFFE
FFFE
000F
FFFB
0002
FFF4
FFFA
FFE4
FFFA
FFF6
FFD4
FFF3
002C
001B
000E
000F
FFE8
0023
FFF0
FFF1
FFFA
FFFE
0000
000B
FFEA
FFF4
0000
FFF5
0023
0007
0000
000B
0000
FFF5
0006
FFF2
0002
FFFB
FFFD
FFE3
000C
FFF5
000E
FFEF
FFF7
FFAD
FFEA
0003
FFF6
FFF6
000B
FFFE
0008
FFEC
FF9B
0000
000C
0000
FFFB
0013
0006
FFFE
FFF9
0001
FFF7
FFEC
001B
0000
000B
FFFE
FFF8
FFEA
FFF7
FFEC
FFE9
0001
0017
0007
000F
FFF8
FFF2
FFED
000B
000A
FFD9
0000
001E
FFEB
FFF2
FFF2
FFFE
0009
FFF8
FFF3
FFF9
FFF6
FFEC
FFF3
0006
000D
0010
0002
0000
FFF2
0002
FFFF
000B
0017
FFFF
FFB5
0002
0000
FFCC
0010
0006
0013
FFFF
000B
FFB8
FFF3
FFFB
0009
0003
0017
000C
0003
0006
FFEA
FFF3
FFF1
0016
FFF2
FFFD
0005
0003
FFD8
000D
FFFC
FFF1
FFE2
001C
FFF0
000C
FFF6
FFF6
FFFF
FFFF
FFFB
FFD7
FFF1
0000
FFF1
000E
000E
FFFE
FFFE
FFE4
FFED
FFF2
FFE7
0011
FFE3
0003
000C
FFFF
0003
FFEA
FFF5
FFFB
0011
0004
000A
FFEF
FFD3
0000
0012
FFF8
FFFC
FFF5
0006
FFF8
0000
FFF7
0016
FFEA
FFEC
FFF7
FFFA
FFF8
0011
002D
FFF6
FFF0
FFE0
000C
0011
FFDF
000C
0003
FFF8
FFEC
FFEE
FFF8
FFEE
0001
FFFF
000D
FFF3
000E
FFF5
FFE8
FFF2
FFE6
0011
0000
0007
FFFC
0002
FFED
FFFA
FFF9
0004
FFFA
000D
FFEB
0002
000E
0017
FFF7
0007
0006
0000
0002
FFE6
FFFA
FFF7
0006
FFEA
0001
002A
FFFB
FFF7
0015
0000
000F
FFFB
FFFA
000E
0008
0005
000E
0010
FFFC
0016
002E
0003
000C
FFE4
0016
000F
FFDF
FFF1
0000
FFEA
0000
FFEF
FFF0
FFE0
0003
FFF6
FFFB
FFF6
0003
FFDC
FFD9
FFED
000C
0000
001A
0001
000E
FFF7
FFFE
FFE9
0000
000A
FFFA
FFEA
0001
FFE6
000C
0015
0017
FFF7
FFFD
FFEA
0000
FFF3
0010
FFEB
0009
FFEF
FFF3
003A
0000
FFFA
FFF5
0023
FFF1
0000
001E
0016
0010
FFF8
0005
0000
0001
0011
0010
FFE5
FFE7
0004
0017
0000
FFDD
FFF0
FFEF
FFF7
0008
000B
FFFB
000B
000B
000A
0015
0009
FFF6
FFEB
FFFA
FFFE
FFEF
0000
FFF5
FFF2
000D
000B
000B
FFF1
0002
0008
0000
0000
0014
FFEC
0012
0002
000B
0007
0009
FFFF
0014
000D
0010
FFE9
FFF8
FFE8
FFF4
003F
FFD7
0010
000A
0015
0002
000D
FFE7
FFF0
FFFB
FFEF
0000
FFED
000D
FFFA
0028
0013
FFDD
FFF6
0016
FFF5
FFED
0009
FFF8
000A
FFF9
0004
0023
0000
FFFA
FFF2
FFF8
000D
FFF0
000B
0001
0014
000F
FFFF
0002
0006
0008
FFF3
FFED
FFF8
001A
FFFA
000C
FFF5
FFEE
0002
0000
000D
0001
FFF7
FFEC
001B
FFE2
001D
0015
FFFD
FFF8
0012
0012
0026
FFD5
FFE9
0013
FFFC
FFEF
FFEF
FFE9
FFEE
000B
0003
000F
FFFE
0003
000D
004C
FFF8
0022
FFF7
FFDE
FFFB
FFFB
FFEE
FFF0
FFAE
FFEE
0000
003D
FFFC
FFFD
FFF8
FFF5
000A
FFFC
0000
0008
0004
0012
0000
FFFF
0005
FFF9
0014
0005
FFF0
0000
0000
0008
FFFB
FFEF
FFF0
FFF4
000E
0004
FFF7
FFED
0036
FFD8
0030
FFFE
FFF8
FFFE
0008
FFF2
0027
FFEA
FFF8
FFF5
000E
0010
FFF6
FFF8
0000
0012
0009
0006
FFFA
000A
FFF1
005C
FFFC
FFFE
FFF2
000A
FFEF
FFED
FFFC
FFF4
FFFE
0006
FFF4
002A
0009
FFF6
0005
FFF4
0000
000E
0004
FFEF
000E
FFF6
FFFB
FFFE
0015
0015
FFFF
FFFD
0009
0014
FFED
FFF2
0012
FFFD
0013
FFFB
FFF8
FFF6
0010
0004
000C
000B
FFF0
0015
0004
FFEC
FFF9
FFFE
0052
FFF0
FFFC
0007
0002
0004
0004
000B
FFEC
0006
0000
FFEE
000B
FFFE
0000
0036
0014
FFE8
000B
FFEC
000E
FFFF
FFF7
0014
0007
FFF9
0002
FFED
FFF7
0004
FFF2
FFF9
FFF5
FFF2
FFFA
FFF1
FFFD
FFF0
0011
0000
FFF4
FFEE
0009
0006
FFEF
0019
0000
FFFA
FFFA
0010
FFF8
FFEE
FFF4
FFF5
0009
FFF4
FFF1
0000
0017
FFF5
000E
FFFF
FFF9
000B
0032
0007
FFF5
0000
FFFF
FFEC
000F
0003
FFFD
FFF2
0011
FFEE
000F
FFF2
0003
FFD6
000C
0004
FFEE
0009
FFFE
FFF7
0013
0010
FFFC
0013
FFF4
0000
0006
000C
0014
0003
0003
0005
FFEF
FFF7
FFF3
0005
FFEF
FFED
FFF4
0014
0010
0006
FFF5
0009
FFFC
FFEC
0014
000D
0001
000A
FFEC
FFF9
0012
0009
FFFE
0015
FFDF
0000
0010
0009
FFE6
FFF5
0040
0010
0007
000B
FFEE
0000
000A
0001
FFED
FFF2
0004
0007
0013
0007
0014
0029
FFF4
0006
FFEE
FFF6
FFFB
FFFB
0011
0006
FFFB
000F
0013
0009
0000
000B
0006
000E
0009
FFFE
000D
0011
FFF9
FFF9
FFED
0000
0009
FFEF
FFFF
0012
0012
0000
FFEE
0002
0006
FFF7
FFF2
FFF0
0000
0004
FFF7
0013
FFFF
0006
FFF0
FFF2
FFFA
FFF8
000C
000E
FFFD
0000
FFF3
000A
0014
FFED
0001
000B
FFEC
FFFC
FFFA
0004
000E
0006
0002
0004
0003
0005
0011
0001
FFFF
FFF1
FFF7
FFF8
0003
FFF2
FFED
0001
FFF3
FFFC
000A
0009
FFF4
FFF4
000A
0012
000F
000E
FFF0
FFF8
000F
FFF5
0010
0010
FFF7
FFF5
0010
000D
0007
FFF9
0001
FFF8
FFF2
0007
0003
FFFC
0006
FFFB
0012
FFF3
FFEC
FFF0
FFF5
FFFA
0005
FFFA
FFEE
0002
FFEF
FFF7
FFF1
000D
0000
000E
FFF4
FFFE
0003
FFF9
0006
FFF8
0002
FFED
FFF5
0016
FFFD
0014
0000
000D
FFF0
FFF3
FFFA
000C
0010
FFFC
0002
FFFB
0014
0002
FFFD
FFF3
0006
FFED
FFFB
FFFF
FFFC
0001
000F
FFFF
FFF8
000B
FFF7
0007
0007
0007
FFF2
FFFA
000A
FFFB
0000
FFF4
0000
FFFD
0007
FFF1
0000
0002
FFEC
0006
0005
FFFC
FFF0
000E
FFF8
0004
FFEF
FFF0
0006
FFF1
FFF8
FFF8
0000
FFF5
FFFE
0012
FFEC
0006
FFFD
0030
FFF6
0036
FFEC
FFFE
0008
0013
FFFB
000B
FFF7
0006
FFF7
FFFA
FFFE
FFEE
0011
000E
000E
000C
FFEF
0008
FFF4
0003
000E
0008
0014
0014
0000
FFF1
000F
0008
000D
0007
0015
000E
FFF8
FFFC
001E
FFF0
002B
0001
FFFE
0014
FFF5
FFFA
FFF6
0000
FFEB
FFF8
FFF5
FFF4
0001
0002
000F
FFF6
FFEE
FFEF
FFF8
000A
FFED
FFED
0003
FFF7
0003
0014
0009
000E
FFF3
FFFC
FFF3
0003
0017
FFF6
0011
0010
FFF5
FFFF
FFF4
0015
FFF7
0023
FFFE
0017
0001
000B
FFFC
000E
FFEE
0000
0005
FFF6
0016
FFFB
000D
000A
FFF1
FFF6
001A
000D
FFF5
0013
FFDA
FFCA
0033
0002
FFED
0007
0007
FFF8
FFED
0003
FFF3
FFF3
FFFA
000D
0002
001B
000B
FFFD
000A
0012
0015
FFF3
FFF9
FFDC
FFF2
0020
FFEC
0002
0006
0004
FFF7
0011
0022
0008
002F
FFD9
FFFB
0018
FFEC
FFFC
FFEF
0012
FFF5
FFFD
0000
FFFF
000A
000A
0005
FFF6
0013
000C
0007
FFFC
000B
FFF1
FFED
FFF3
FFF4
0006
0009
FFF0
FFF0
FFFC
0000
FFF5
FFEF
FFE9
0001
FFF4
0020
FFFE
FFB7
FFF3
FFFA
FFF8
0011
FFF9
0000
0036
FFF5
0008
000B
FFE8
0015
0001
FFF3
FFDA
FFF2
0029
FFED
0037
FFF3
0006
FFF8
0009
0021
FFED
0006
FFFA
FFFF
0013
0001
FFF3
0002
0016
0002
FFE0
FFEE
0004
FFFE
FFEB
FFEA
0004
0013
0006
0003
000D
0013
FFE4
0004
0015
0000
FFFF
0000
000E
FFFB
FFF3
FFFF
0006
FFE8
0012
FFF6
0015
0014
0009
FFB9
FFED
FFF0
FFEE
0004
FFEF
FFFB
002E
FFFC
000D
FFEE
FFFE
0010
FFFD
0003
FFE0
0005
FFE8
FFEB
0007
FFEB
FFFB
FFEA
FFFC
FFF8
0007
FFFE
FFF6
0009
0007
0007
000F
0003
0004
FFF2
FFEF
0004
0006
000B
000C
FFFA
001A
FFFF
0002
0016
001D
000F
0007
0002
FFF1
FFF1
FFFE
FFEC
000E
0000
0000
0007
003F
FFE9
000D
FFFA
FFFF
001A
FFFE
FFF8
FFFF
FFFF
0008
FFFB
000E
FFF1
0005
FFFD
0012
0013
FFEA
0006
FFFB
000E
FFD1
000C
000B
000D
002F
0002
FFF3
FFF4
0003
FFF3
FFF3
FFF5
FFEF
000A
FFF2
FFF9
FFEE
FFE6
FFF2
FFF9
FFEF
0012
0001
FFFB
0002
0003
FFEA
000A
0005
FFF7
0012
FFFC
000A
FFFC
0010
FFE6
000B
0011
0000
FFFF
FFFA
000C
0014
FFFA
FFFB
FFFE
0014
000C
FFF2
FFFD
FFFE
FFF0
0001
0011
FFEF
000A
FFF3
0005
000D
FFFF
0004
0004
0011
0000
FFE2
000D
000D
FFF1
001D
FFF9
000D
000F
FFF9
FFD7
0000
FFFF
FFF1
FFF5
0000
FFE9
FFFD
FFF4
FFF0
0012
0000
FFFF
FFDE
000D
FFE9
FFF8
0003
0006
FFF8
0005
0001
FFFA
000F
FFEC
FFE7
FFDE
FFFB
0000
FFF2
000E
0000
000E
FFF8
FFF1
0002
0005
0002
0005
0000
FFD0
FFE5
000B
FFEE
FFF3
FFEE
FFEE
FFDA
FFF5
0002
FFF5
FFEC
FFF6
FFFB
FFE8
FFDB
FFF4
FFDD
FFE9
000E
0002
FFF1
0000
FFEC
FFF0
FFF2
FFEE
FFFD
FFF0
000F
0000
FFEC
FFF4
FFFD
0005
000C
000A
FFE2
FFFA
0005
0013
0003
000F
FFF6
0010
000E
000A
0001
0003
FFE7
FFFE
FFFC
FFEF
0005
FFFC
FFF9
0003
001D
0005
0001
FFED
FFEC
FFF1
FFFB
FFFF
FFF6
0009
0003
FFFC
0008
FFEF
FFE8
FFFE
0010
000E
FFF8
FFF0
000D
FFE2
FFF9
0005
000C
FFFA
0010
FFEF
FFDA
0006
FFFC
FFE2
0007
FFF6
FFE8
FFEE
FFFE
0000
0002
FFF1
FFF9
0016
FFDF
FFF5
FFCE
0008
FFFC
FFF2
0000
0001
0009
0001
0010
0009
FFFA
000A
0003
FFFA
FFF0
0003
FFF4
0008
FFE2
FFFC
0029
0001
000E
FFEF
0001
FFEC
FFF3
0003
FFFB
0003
FFE4
0003
FFF8
FFEF
FFE2
000A
FFFB
0011
FFFB
FFEE
FFF7
FFBB
FFEA
FFE5
0009
FFD9
0011
FFFB
FFD8
FFEA
000D
FFE9
FFED
FFE3
FFD2
FFF8
000F
0001
0002
FFF9
FFF0
FFE9
FFF5
0012
FFE5
0005
FFE7
FFF5
0001
FFFF
0003
0002
FFFA
FFE9
000A
0003
000C
FFE1
000C
FFF3
0014
0005
0007
FFF0
000B
0013
FFEC
FFEC
FFF8
FFFB
FFF7
FFF7
FFD8
000B
FFF4
FFF1
FFE4
0009
FFF5
0004
FFF6
0013
FFE7
FFF2
FFF5
FFBF
FFC6
FFE2
0020
FFF2
0019
FFFE
FFF3
0006
FFF0
0012
0000
FFFB
FFCC
000A
FFFD
FFFF
000C
0009
0007
FFF7
0003
000D
FFFD
FFF5
FFF2
FFF0
FFFF
FFF9
FFF3
FFF2
0003
FFED
FFFC
000D
0000
FFC7
FFFA
FFEB
0014
0002
FFF4
0004
0008
0009
FFF5
FFFD
FFF2
FFE3
FFFB
FFF9
FFE2
FFF2
FFFE
FFFD
FFF7
0004
FFF0
0006
0000
FFFC
FFF8
FFF8
0003
FFC8
FFCD
FFEB
0002
FFEE
0002
FFF9
0010
0006
FFFF
0004
000C
0006
FFDD
FFF1
001F
0004
000A
FFFF
0008
0011
FFD9
000C
FFE5
0001
FFE5
FFF9
FFF2
FFFE
FFF2
FFEE
0011
FFFB
FFF9
000A
FFF9
FFDE
FFF3
FFF4
FFEF
0004
FFFB
0018
000A
000F
0010
FFFB
0000
FFCB
0000
FFF2
FFF0
FFEF
FFFD
0011
FFFA
0012
FFF8
0000
FFEF
0016
FFFE
FFF1
FFF2
FFAC
FFEC
FFE2
0001
FFE3
0006
000F
001E
FFFF
FFFD
FFE0
FFEF
FFE9
FFB8
FFD1
0000
FFF5
FFF4
FFE4
0000
FFFB
FFF0
FFFE
FFEF
000C
FFDB
0000
FFF4
FFFD
0000
FFF7
000D
0010
FFF8
FFF6
FFF3
0000
0010
000B
FFFD
0008
0004
FFF1
FFF6
000A
FFE9
FFEF
FFF9
FFE5
FFF0
0000
FFEF
FFF1
FFF7
FFFE
FFE2
0011
FFB6
0000
FFF2
0015
FFF0
000A
FFE8
FFDC
FFF0
FFFA
0013
FFE2
0020
FFF0
0001
FFF0
FFFE
FFFA
0000
0001
FFD4
FFE1
0005
0009
000D
000D
000A
FFF5
FFD9
0007
FFEC
FFFF
001A
0000
0005
0002
FFFA
FFFC
FFFD
0005
FFF7
FFF5
FFF9
FFF8
FFFA
0006
FFF4
FFF3
FFF2
0000
FFEC
001D
0007
FFE6
FFF9
FFED
FFFF
000B
FFD7
0001
0001
FFE1
FFFC
FFF4
FFC5
FFED
FFF9
0009
0002
FFF7
000D
FFD0
FFE9
0001
0011
FFFD
000E
0010
000B
FFF5
FFF8
0010
000B
FFFC
FFE2
FFF0
FFFB
0013
000D
000D
0006
FFFB
0004
0000
FFDC
FFF6
0009
FFEE
FFEF
0006
0006
0003
FFFF
000D
FFF3
FFEF
0004
FFED
000D
FFFE
000D
0000
0000
FFED
0001
0004
FFED
0009
FFE4
0011
FFF9
0016
FFFB
FFF7
FFFE
FFE7
FFFB
FFF2
FFF2
FFED
FFF3
0012
0004
0008
FFE7
FFE6
FFFD
FFDD
FFF7
FFFB
FFF4
FFF7
0007
FFF5
000C
FFD0
FFFF
0007
FFEC
FFF6
001A
0006
0003
0011
0006
FFDE
0016
FFF6
FFF7
FFFF
0005
FFF7
FFF3
0000
FFF8
0004
FFF9
FFFD
0008
FFF1
FFFE
0017
FFF5
FFFD
FFF7
FFE4
FFFF
0006
000E
0005
0009
0002
FFF7
FFF7
FFF0
FFF6
FFF8
FFF4
0006
0003
0000
000D
FFD1
0007
FFF6
0005
0003
FFF8
FFF4
FFF7
0012
FFE5
0003
0008
0010
FFEA
0014
0006
0008
FFE5
FFEF
FFF7
FFFC
FFD9
FFF7
FFF2
000E
FFFE
FFF9
0001
FFF0
0000
FFFE
000C
0018
FFF9
FFEF
0000
FFF0
FFE4
FFFB
000D
0006
FFEB
FFF4
000E
FFF4
000D
FFF8
FFF5
FFFC
0003
FFF8
000B
0002
FFE4
000D
FFFB
0006
0010
FFF1
0009
FFFA
FFF4
0006
0009
000C
FFFC
FFF2
FFEE
0000
FFE7
FFED
FFEC
0000
0006
0008
FFFD
0001
FFE8
0001
0001
0002
FFF8
0002
000D
FFE2
FFF0
000A
FFF3
0004
FFF3
0000
FFEA
FFF5
FFF4
FFF5
FFF7
FFF8
000A
FFF0
000F
FFFA
FFF5
FFF4
FFF8
FFF7
FFFB
FFE5
FFDD
0012
FFF4
FFF3
FFEF
FFEB
FFFD
FFF5
FFF2
FFEA
FFEE
0010
0010
0004
FFFB
FFDA
FFFD
FFF9
0014
0002
FFEA
FFEF
FFF8
FFFA
0009
FFF8
FFFD
FFEB
0000
0014
FFF7
FFF1
FFF5
0008
FFF8
FFEF
FFED
FFEF
0011
0000
0000
FFF8
FFE5
000A
FFF4
FFF7
FFF9
0008
FFC2
FFEE
FFF9
FFFF
0007
FFEC
0003
0001
FFEF
FFF7
FFF0
FFEB
FFFD
FFED
FFF7
FFEE
FFCF
000C
FFF3
000A
FFF2
000C
FFF8
0008
FFFD
FFEB
FFF9
000A
0013
FFF6
0013
FFC1
FFED
0007
0005
FFE4
FFFA
FFDA
FFF6
FFED
FFF0
FFDF
0012
000E
0001
000A
FFEF
FFEA
0003
0005
FFEC
FFD9
0010
0003
0017
FFF5
0005
001B
FFEE
FFFB
FFF7
FFF0
FFFB
0007
FFD3
FFEA
0008
FFF2
0014
FFF1
FFF3
FFF0
FFF1
0003
0006
FFFA
FFF3
0002
FFF2
FFFF
FFF1
FFFD
000A
FFFC
000C
0001
FFE9
FFD6
FFFF
FFF9
000F
FFEC
FFEA
FFF0
002D
FFF3
0000
FFF3
0000
0005
FFFA
000B
FFF9
FFE6
0013
FFFD
000C
000F
FFFD
0023
FFEC
FFEF
FFF8
000B
FFEF
FFE4
FFFF
FFFE
FFFD
000F
FFF1
0019
0015
FFEE
0005
0010
000A
FFF9
000B
FFE2
000F
0007
0001
FFE7
FFFB
FFF0
FFFA
FFF4
000D
FFDC
0007
FFFA
FFF3
FFFB
FFF2
000E
0013
0011
0000
0008
FFF7
FFE6
FFF1
0016
FFF9
FFEE
0010
0006
001C
FFEE
FFF2
0000
FFF2
000D
FFE8
FFDB
FFF5
FFF0
000D
FFFE
0003
0002
FFFE
FFFF
0007
FFFA
FFFE
FFEE
FFF5
FFFB
FFFE
0004
FFCA
0001
000D
0036
000C
FFF8
0000
FFF8
FFF0
000C
FFFB
FFF0
0009
FFED
0001
0001
0002
0007
FFEC
000F
0000
FFD9
0011
FFED
FFFA
0012
0007
000B
0004
FFF7
FFF8
FFF3
FFEF
FFB9
FFFF
FFEF
FFF0
FFF7
FFF3
FFF6
0028
FFFE
FFF3
FFF1
FFFC
FFEE
000F
0016
FFFE
FFED
FFF4
000B
0014
FFF4
FFEE
0003
FFFF
FFC3
0001
0000
0006
0006
0001
0006
FFC2
FFF9
FFFE
0036
FFFF
FFFD
FFEC
FFF0
0013
FFFC
0008
0005
0005
FFFA
FFF7
FFEF
0016
0010
0011
FFF6
FFFF
FFF1
FFF6
FFED
0000
0000
0011
0013
FFF0
000D
0012
FFF8
FFFF
FFAF
FFDA
0002
0000
FFFD
FFC5
FFFC
0033
FFF8
0000
0003
0001
FFEE
FFEA
002B
0000
0000
0001
FFF5
FFF2
0003
FFF7
000B
000B
FFB8
FFEB
0015
000A
FFEB
000E
0012
FFEE
0011
000B
0042
FFEE
FFF0
0008
FFFA
FFF8
0017
FFF3
000D
0012
000D
000E
000B
0014
FFFF
0009
0006
FFF5
0008
0005
FFF3
FFEB
0000
001E
FFF0
FFF7
0011
FFFE
FFF6
FFFE
FFEB
FFF9
FFFF
FFEF
0012
FFDC
FFFF
0054
FFF0
0001
000D
FFF5
0011
000D
000A
FFF5
0000
0000
0001
FFF2
FFF5
0008
FFEC
002D
FFFC
FFEF
0000
FFFB
000C
FFED
000F
FFFA
000C
0000
FFFF
FFDD
0000
0011
000A
FFFD
0011
FFF4
0001
0003
FFEA
000B
FFFC
0010
FFFC
FFFD
000D
FFF8
FFFE
000C
FFF5
0011
000F
0006
0004
000D
FFF3
FFEA
0007
FFF2
0014
0024
0009
FFFD
FFF1
FFCF
FFF9
0067
FFFA
0012
FFF3
FFFB
0000
0013
FFF2
0009
FFFE
FFF4
FFED
FFFB
FFFF
FFF1
FFE1
0017
002C
0009
FFF0
FFFA
0000
FFFA
0009
FFDE
0000
0010
FFF1
0001
FFFF
FFEC
FFF5
FFF6
0007
0006
FFF1
FFFE
000D
000E
FFF0
0012
0006
0003
FFED
FFF3
FFF1
FFFF
FFF9
0003
FFF0
FFF8
FFF8
0000
0011
FFE8
FFF2
FFF9
0018
0000
000F
FFFF
FFFA
FFD1
FFF1
000B
0012
0002
FFF8
0010
FFF6
FFE8
FFED
0009
FFF3
0007
FFFE
FFFD
000E
FFFC
0030
FFF2
0020
0001
0006
FFFD
FFFC
000A
FFEB
FFFA
0003
FFFD
0003
FFFA
0005
FFF4
FFFE
000F
0011
FFEE
0012
FFF8
FFF9
FFF7
0015
FFED
0002
FFEB
FFFD
FFED
FFF9
0003
000E
0009
FFFC
0005
000B
FFF1
0005
FFF9
0007
0015
FFF5
000A
0006
0011
FFEF
FFF1
0007
0000
FFFC
FFEB
0009
0008
0006
FFF2
0013
0011
0013
FFF3
0006
0007
0006
FFF6
0000
0007
0014
FFF2
FFF3
FFF0
0006
FFF2
FFF1
FFF9
000C
FFFD
000E
0011
FFF0
0004
000A
FFF6
FFEF
FFED
0002
0011
0012
FFFC
000F
0010
FFFF
0006
0010
FFF1
FFFD
FFF8
FFED
0009
0008
FFF3
FFFC
0010
000D
FFFF
0005
FFF2
FFF2
0000
FFFB
FFEB
FFFA
0010
0002
FFFE
0006
FFF0
FFFD
0006
0005
FFF7
FFF9
000D
FFEB
000F
FFF6
FFF4
0011
000C
0009
0005
0010
0011
0036
FFF7
001D
000C
FFFA
FFEC
FFED
FFF6
0000
FFED
FFFD
000E
0010
FFF4
FFED
0015
FFFD
FFF2
FFF5
000B
000B
0013
0015
FFFF
FFF5
FFF8
FFF4
000C
0001
0001
FFF7
FFF9
FFFE
FFEE
0003
0009
0003
000D
0006
002A
000D
000E
000E
000E
0004
000F
FFFA
FFFB
000A
0005
0000
FFF7
FFEA
0000
0014
0000
FFEC
FFF5
FFEC
0011
000C
FFFD
0009
FFEF
003E
000E
001D
FFF7
0014
FFE9
0013
FFED
FFD6
FFF4
0000
0012
FFF8
0014
FFFC
000F
FFF0
FFF6
000C
FFF5
FFF9
FFEA
000C
FFF2
FFE3
0013
0008
0003
FFF9
FFF6
000C
FFE2
FFEC
001B
FFF1
0008
FFF2
FFF7
001C
0016
000E
0009
0015
002B
0010
FFDB
0013
FFFD
000B
FFFE
0010
FFEE
001B
0000
000E
0008
FFF1
FFFC
FFF3
0005
FFEC
0002
001A
FFF2
002A
0010
000D
0000
FFEB
FFF3
FFFB
0013
FFE7
FFF6
000F
FFF5
FFF9
FFEC
0003
0011
FFC9
FFFC
000A
FFF8
0003
000E
000A
0006
FFFF
FFFD
0004
0002
FFEA
0004
FFE7
FFE7
0004
0010
FFF0
0010
0001
0004
000B
0005
0011
FFF6
FFFF
001B
000B
FFC3
000A
FFFE
FFF6
0004
000E
0000
000A
FFEB
FFEB
FFE9
FFF9
0011
0001
FFF8
FFDF
FFFE
FFE1
0009
001E
FFEF
FFFA
0001
000D
FFFA
0003
002C
FFE0
0000
FFF5
FFFF
0008
FFF9
FFFD
FFF9
0006
000D
FFFC
FFEF
FFFC
000A
000C
FFFE
0010
000E
FFFC
FFF1
FFF2
FFF5
0006
FFE0
FFF5
0015
000A
FFFE
0005
FFFF
FFDE
FFC9
000B
FFF3
0014
002B
0017
FFD5
FFF1
FFFD
0004
0004
FFFD
FFF6
001B
FFF2
FFF5
FFF1
FFFE
0006
FFFD
001A
FFEA
FFE9
FFE3
FFF6
002C
FFF9
FFF7
FFF0
FFFE
0000
FFFA
0014
FFED
FFEF
FFF5
FFF7
0008
000E
0017
FFF1
FFEE
0010
FFEE
FFFC
0001
FFEC
FFF4
FFF6
0009
FFEC
FFF3
000A
0003
FFFF
0009
FFD4
FFFF
0008
0012
0002
FFF6
000B
0009
FFE8
FFF8
000B
FFED
FFDD
0003
FFE7
FFEF
FFF9
0013
0001
FFF1
FFF7
FFFC
0002
0004
FFF6
0005
0000
FFFC
0028
FFBD
FFF5
0000
FFED
000C
FFF2
000B
000B
FFEC
FFFB
FFEF
001F
FFE4
0001
000A
FFED
0001
000C
FFF7
FFF6
FFFB
FFFD
FFE0
FFEA
0005
FFF8
0005
FFFB
FFF1
0014
FFFA
FFEE
0001
FFFC
FFF4
FFD9
0015
001F
FFEC
FFF9
0005
0013
0008
0010
FFE8
0000
0001
FFFD
0003
FFFD
0004
000B
FFF9
FFF4
FFEB
000B
FFF4
0005
FFED
FFF3
000E
FFF9
000F
0030
FFCA
FFF1
0003
FFEA
FFFB
0001
FFEB
FFE7
0009
0003
FFFE
0022
0017
0002
0003
0005
FFF1
FFF1
0007
0002
FFF9
0000
FFDB
FFE7
FFE9
FFF0
FFE8
000B
FFFF
FFF2
000F
FFF8
000A
FFFB
FFFB
FFCE
0008
0008
0001
000D
FFF7
001A
FFF1
FFEB
FFED
0009
0010
FFC1
FFFC
FFF1
FFF3
FFFA
FFF4
000C
FFEC
0021
000D
FFFC
FFFF
FFF0
0002
FFF3
FFED
001A
FFE4
FFCA
0012
FFFB
FFF6
0018
FFE7
FFF6
0007
FFF8
FFE9
0007
0006
FFE3
FFF5
000C
0000
FFEB
FFF9
FFD1
0000
FFF9
FFDD
FFEC
FFF2
FFFC
FFE1
0006
FFFC
0012
0019
0002
0001
FFF6
FFFF
FFD4
0008
0000
000F
FFF7
FFFC
0009
0001
FFF7
0007
0000
FFF3
FFD7
0001
FFF9
0001
0006
FFE8
FFF6
FFFC
0007
FFDD
FFFF
FFF3
FFF9
000A
FFFC
FFFE
002A
0004
FFEE
000C
FFF2
0019
0012
FFCE
FFF2
0013
FFF8
0002
FFE4
FFAE
0000
FFEC
FFF0
0008
FFF2
FFFA
FFEC
FFF9
0002
FFD9
000A
FFE6
FFFA
FFE8
FFF7
000F
FFF4
0000
0004
000C
FFF2
FFE0
FFED
FFEC
FFEB
0010
0000
FFDE
0013
000B
FFFF
FFFD
0000
0013
FFDE
FFED
0004
FFE0
0011
0007
FFF4
FFF1
0003
FFE3
FFEC
000F
FFFB
0006
FFF6
0002
000B
FFD4
0000
FFF9
FFD5
0009
FFFE
FFBC
0001
0007
0000
FFE6
000A
FFB8
FFEA
0006
FFFF
FFFB
FFE5
0009
FFE6
FFF2
FFF4
FFF9
000D
0000
0010
0004
0000
FFF2
0005
0003
FFFF
FFF3
FFEE
0000
FFE3
000C
FFDE
FFFE
FFFB
FFE8
0027
FFF9
FFF9
FFF4
FFFA
0000
FFCE
FFFC
000B
0005
FFEE
0006
0000
FFF1
0009
0016
0007
0010
FFFB
FFF8
FFFF
0000
FFF3
FFE9
FFEB
000A
FFF6
0006
FFF1
FFCA
0003
FFE9
FFFC
000C
000D
FFD3
FFDE
0008
FFEA
FFEE
FFE4
000A
FFE7
0001
FFF6
FFFC
FFF1
FFF3
FFEC
FFFE
FFF3
FFEB
FFFF
0008
0008
FFFA
FFEC
FFE6
FFE9
FFFB
FFE3
0006
FFF5
0008
000A
FFF5
0000
FFF1
FFDD
0008
FFD0
FFF8
FFF4
FFE9
0010
FFEB
000D
FFE2
0017
FFF4
0003
FFF5
FFF7
FFEE
FFF6
0003
FFFF
0007
FFF2
FFF4
FFE8
0004
FFF8
0013
FFFC
0006
FFC8
FFFD
0004
FFD2
FFFA
000A
000D
0008
FFEC
0005
0009
000A
FFEE
FFFE
FFF6
001A
0003
FFEC
0000
FFF3
FFFA
0000
FFEF
0006
000E
FFEE
FFF7
FFF4
FFF3
FFFF
FFF7
FFEF
FFFE
0007
0006
FFEC
FFF6
FFF3
FFC1
0008
FFFF
FFF3
FFEC
FFFE
FFF2
FFEE
FFF9
FFFD
000C
FFFD
FFF9
FFFA
FFEF
FFEF
FFF4
FFF1
000F
0002
FFEE
0002
0010
000B
FFF9
FFED
FFF7
FFEC
FFDF
FFCB
FFE9
0010
0004
000E
FFF9
FFF1
FFF4
FFE5
0004
001A
FFFB
0000
FFF4
FFF4
FFF0
0008
FFF6
FFF4
FFF4
0003
000B
0003
0005
FFFB
0003
FFFF
000D
FFF9
0005
FFE5
000A
FFF5
FFE5
0002
FFEB
FFF9
FFF7
FFE9
0003
0006
FFE1
FFE2
000D
FFF9
FFF3
FFE9
FFF9
0009
0000
000E
0005
0009
FFEC
0011
0004
0006
FFFA
000B
FFF6
FFF2
0000
FFEF
0002
FFD7
FFE3
0013
FFEF
0002
FFF9
FFE9
000C
FFF4
000F
FFE6
FFFE
FFFA
FFF3
0001
FFF1
0004
FFFF
FFF0
FFEC
FFF3
000E
FFE1
FFF8
0000
FFF0
FFF1
FFFA
0002
FFF9
000C
FFFD
0006
FFFA
0005
FFF9
FFE9
000A
FFD1
FFEF
FFEA
FFF8
FFEE
0001
0000
0009
FFED
FFEC
FFEA
FFFF
FFF2
FFF5
FFE8
FFEF
0011
0016
0017
000A
001B
FFF6
FFFE
0006
0007
FFFF
FFE3
FFEB
FFF5
FFFC
FFEF
000A
FFEA
001A
FFF8
0003
0002
FFE6
FFF6
0008
FFEF
000D
FFEC
FFEC
FFF6
000E
0001
FFF3
FFF3
FFF6
FFE8
0008
FFF3
FFFB
0001
0010
FFFE
FFFF
FFEB
FFE4
FFF8
FFFC
FFFE
0008
FFD6
0015
0001
FFF4
0000
0003
FFD6
FFF2
FFED
FFEC
FFFA
FFFA
0006
FFF3
FFF1
FFDE
0002
0001
FFFB
FFF2
FFFE
0006
FFEA
0012
FFED
FFF5
FFBE
0007
FFFA
0003
FFFD
FFFA
0002
FFEB
FFC2
FFFD
FFFD
0007
0004
0009
FFF6
FFFB
0006
FFF1
FFF6
FFFF
FFF9
FFF3
FFDA
FFE3
FFF1
FFFB
0013
0003
0000
FFED
0000
000C
0000
0001
FFED
FFE9
000D
0015
0012
FFFF
FFF2
0009
FFEE
FFED
FFED
FFF2
0007
0002
0001
FFE9
FFF2
FFD0
FFFF
FFF9
000A
000D
0009
FFED
FFE8
FFFD
0002
FFFD
FFF9
FFFA
FFC2
FFEF
0003
FFEE
0000
FFFF
0009
FFE9
FFC6
0009
000E
0005
FFF0
FFEE
0007
FFE7
FFF4
000D
FFE1
0009
0002
FFFD
FFF2
FFE5
FFF4
FFFC
0010
FFF6
FFF3
FFFF
0002
FFFC
FFF3
FFF8
000C
0001
0012
000B
FFE6
0007
FFE7
0019
FFE9
0003
FFE1
FFF3
FFEB
000A
000D
FFF8
000F
FFC2
FFF4
FFEC
0002
0002
0000
000C
FFF5
0009
0006
0014
FFF7
FFEC
FFA5
FFEC
FFFC
0009
0010
000B
000C
FFF9
FFD5
FFFF
FFFA
0002
0003
0009
FFE6
FFF1
FFF6
FFEA
FFC9
FFF0
FFFE
0003
FFEE
FFF0
FFFF
FFEF
0011
000B
FFFE
000E
FFFB
0006
FFF2
FFF0
FFFD
FFF2
FFF1
0000
FFEE
FFF1
000B
FFFB
000B
0000
FFFC
0008
0006
000F
FFFF
FFFC
FFFE
FFD4
000C
FFFC
0000
FFEE
000A
0007
FFD1
0003
000C
0002
FFF6
FFCC
FFDD
0002
FFF3
FFF4
FFFF
FFFF
0006
FFF6
FFE9
0002
FFF6
FFFA
0000
FFEE
000C
000C
0007
000C
FFEE
FFF6
000F
0004
FFFB
0015
0000
FFF5
0002
FFFC
FFFC
FFF3
000B
000E
FFFE
FFF6
0000
FFF6
000D
000E
FFED
0001
0000
000A
FFE5
FFEE
FFE9
0004
FFF7
0006
0002
000E
FFFE
FFCF
FFFD
0002
FFF4
FFEC
FFFB
0013
FFD4
FFF5
000E
0004
FFF4
FFE1
FFDC
FFFF
FFFB
FFF4
0013
FFF8
0009
FFF8
FFC0
FFEE
FFEB
000B
0005
000E
0000
000A
000B
000D
FFD0
000A
FFF9
FFFF
0003
0000
0005
FFEB
0000
0003
FFF6
FFF3
0007
0016
FFED
FFEB
FFFE
0007
FFFE
001D
FFE8
0004
FFF1
FFE3
FFF7
FFFA
0016
FFED
FFFD
0000
0007
FFEA
FFF9
FFED
FFFB
0005
FFF3
FFE3
0007
0000
FFDD
0000
000A
0013
0007
0004
FFF4
FFF0
0003
FFEF
FFFC
000A
0013
FFED
FFE5
FFF4
FFFC
0002
FFFB
FFFD
000B
FFF8
0004
0004
FFE1
0007
0007
FFF7
0002
000E
0000
FFF0
FFF9
FFEA
0011
000F
FFE6
FFFE
000E
FFE8
000B
0014
0000
002E
FFEB
0003
FFFD
FFFC
FFEB
FFFA
FFCE
000F
000A
000C
FFFE
000C
FFF5
FFEC
FFF7
0008
FFFE
FFEA
0011
FFFA
FFEC
0011
FFF7
0018
FFFC
0000
0013
FFEC
FFDD
0012
0004
0005
0015
000E
FFD4
FFF4
FFDF
FFF3
FFFF
FFFC
000E
FFFC
FFF4
FFFE
FFCE
FFF3
FFF2
0013
0009
0019
FFFF
0011
FFF9
FFE9
FFEB
FFE4
0002
FFF0
0008
FFF2
0003
FFFD
FFEC
0002
FFF5
FFF7
FFEF
0009
FFF7
FFF9
0013
FFFE
FFFE
FFFA
FFE8
FFFE
0006
FFE8
0003
000B
FFEC
FFFB
001C
FFF5
FFFA
FFF2
FFFA
FFFF
FFEC
0005
001B
FFF7
FFEF
FFF2
FFF7
FFF6
0008
0000
FFF3
0000
FFDA
0010
0006
000C
0003
000D
0011
FFFD
FFF5
FFFD
FFF8
FFED
0009
FFF2
000F
0009
FFF8
000F
000F
FFF0
FFD2
000F
0001
0008
FFF2
FFED
FFF3
0007
FFF4
FFF7
0002
FFEA
0001
000A
0019
000C
FFF1
FFFD
0004
0008
000F
FFD2
0014
FFFE
FFE4
0002
0000
FFFA
FFF7
FFFA
FFFD
FFE9
FFFF
FFF1
0018
FFF6
0009
FFF0
0011
0011
0000
0003
FFF1
FFF1
FFD5
FFFF
0006
FFFD
FFF1
FFF2
0000
FFFE
FFFE
FFEE
000C
FFF6
0001
0002
0008
0000
0002
FFEA
0002
FFF8
FFF3
0020
FFEE
000E
FFFE
FFE3
000C
002D
FFF6
FFEE
0000
FFE4
FFF8
0010
000B
FFF7
FFFF
0005
FFF6
0009
FFF5
FFEA
000F
0000
001F
FFFC
0033
FFED
0009
000E
FFF3
FFDF
0000
FFFC
FFF7
0008
0005
000D
000A
FFFF
000F
FFFB
0008
000D
FFE4
0009
000D
FFFA
000C
0002
FFF6
FFED
FFFB
FFF8
0005
000A
0011
0012
0003
0013
FFF4
0011
0009
FFD4
002C
000F
0014
FFF1
0009
FFF3
0004
0015
001F
FFFF
0000
000B
FFF5
0003
0022
FFF2
FFF7
FFF8
0001
FFF7
0007
FFF0
002C
FFFF
0038
FFFF
FFF1
FFF7
000F
FFF5
0004
FFF1
000D
0011
FFF7
FFF6
000D
0006
000A
FFED
0012
FFF1
000A
FFFC
0004
0007
FFF1
0014
0015
0005
FFEB
0001
FFF1
FFF5
FFEE
FFF0
000B
FFFB
0003
0010
FFEB
0011
0008
FFFC
0030
FFD3
0006
0000
FFF4
FFD8
FFFF
FFFB
0009
FFF6
0014
FFF9
0002
000F
0004
0015
0002
000D
FFF8
000A
FFFB
FFF6
0039
0007
0032
FFF5
FFF6
000A
0009
FFF9
FFEC
FFFC
FFF6
FFFA
0005
000A
FFFA
0003
FFF1
FFEF
000F
0013
000B
FFF6
0009
000E
FFF9
FFF2
FFFD
FFF1
FFFD
FFF3
0010
0003
FFFA
0014
0007
FFF9
FFFE
0007
0005
FFFF
FFF3
FFED
0013
0003
FFFD
FFFE
FFF8
FFED
000E
FFF4
0004
FFEC
FFED
0011
FFEE
FFFC
0011
0009
0003
0000
FFEB
FFFE
000C
FFF8
FFF4
0014
FFFC
FFFD
0027
FFF3
0009
0012
000A
FFF0
FFFC
FFF3
FFEE
FFF5
FFF7
0007
FFFF
0008
000D
000F
FFF4
0012
000C
FFEC
FFEB
FFEB
0007
FFFA
FFEE
0000
FFFC
0002
0003
FFEF
FFF9
FFEF
0009
FFFB
FFF4
0007
000C
FFF8
0002
0038
FFF2
000D
FFF9
FFEE
0014
0005
FFFA
0011
FFFF
FFFE
FFF0
000E
FFD5
000A
0003
0005
0010
0006
000D
0011
FFEE
000A
FFF9
000B
FFF9
FFF4
000F
FFF1
FFF6
000E
0000
FFF1
000E
0004
FFFD
FFF0
000E
0010
000D
FFF9
0035
FFFF
FFF8
000B
FFFF
0012
FFFB
FFEE
0013
0006
0000
FFF0
FFF0
FFF8
0011
0005
0004
0012
0015
0002
0010
0011
002B
FFEC
0008
FFFA
0000
FFEA
0003
0010
0011
FFF4
FFF7
FFF2
0010
000F
FFFD
000F
FFF1
0008
0017
FFF3
0001
000A
FFF5
FFFE
FFFE
FFF2
0003
FFF4
0016
FFF9
0015
FFE2
FFFF
0008
0040
000A
0000
FFF8
0004
FFFD
0000
0011
0017
0012
FFED
0001
0001
FFFD
000C
000B
FFE9
FFFA
FFF8
000D
FFEC
FFF6
FFF3
FFF7
0005
FFF8
0019
FFF7
FFF5
0003
FFFE
FFE7
FFFC
FFF1
FFFC
0020
FFF7
FFDF
FFEB
FFF5
FFFF
FFF0
000F
0007
000D
000C
FFEE
FFEA
FFED
0009
0001
0004
FFEC
FFF3
0010
0004
FFFF
0003
0015
FFEA
0004
FFFD
0001
001C
0032
0007
FFF2
FFF9
FFF3
0005
0001
FFF9
0021
0001
0011
000A
FFFE
FFF3
0017
000B
FFFA
FFF7
0001
0009
FFFF
0015
0009
FFE2
0011
0008
000E
0012
000B
0001
0010
FFDD
0011
FFEB
0000
0025
0009
0000
000C
000F
FFF0
FFF5
FFFD
000A
002E
FFFD
FFF7
000C
FFF5
0013
0005
0000
FFFB
FFF3
FFCD
000C
0010
FFF8
FFFF
0006
0000
0011
FFFF
001F
001E
0005
000E
0008
0001
FFF4
0016
FFF9
0023
000A
FFFC
0005
FFF9
FFFE
001A
0006
FFF1
0004
FFE9
0004
0007
FFFB
FFFD
FFED
FFEA
0011
0011
FFFC
000E
FFEB
FFFD
FFE1
000B
FFF6
FFF9
FFF2
FFFB
FFED
FFF6
0001
0014
0010
FFF5
0010
0002
FFFA
FFEC
FFF7
FFF3
FFFE
000C
0025
0005
FFEC
FFF0
000D
001C
FFFE
FFFF
FFFE
FFF4
FFF9
FFED
000C
FFFA
FFFB
0007
000E
FFEC
FFEB
0014
FFCB
0027
FFEE
0009
0006
FFEB
0003
0011
FFF4
FFF7
FFF6
FFEE
0016
0007
0008
FFE8
FFFA
000D
001A
0004
FFE7
FFEB
FFF0
FFFD
FFFA
0001
001C
FFF9
FFDC
0003
FFDC
0000
0003
FFF5
FFFE
FFFA
FFFB
FFE8
FFF9
FFF2
0003
001E
0005
0007
0017
FFD6
FFF8
000E
FFEF
FFF5
0009
FFF6
FFF3
FFF0
000D
0003
0007
FFF4
FFF6
0006
0004
000B
0000
FFFC
FFD5
0009
FFF8
FFFC
000B
FFE0
0004
0010
FFFF
0004
FFF0
FFF4
000E
FFF3
0011
FFEB
FFFF
0013
0005
FFF7
FFF2
FFF6
FFF7
FFF6
FFF0
0004
0002
FFF2
0002
0004
0003
0003
FFE3
0003
000D
FFEC
FFFB
FFF6
FFFD
FFE3
FFEB
0019
000D
0000
000A
FFDF
FFF6
000E
0007
000F
FFF6
FFD2
FFFB
FFEE
FFFA
0001
0016
0013
0002
FFF1
0004
0000
0002
0003
FFDD
0027
0010
FFC7
0000
FFF4
FFF4
FFFF
FFF5
FFE0
FFF4
FFF8
FFFD
FFF5
0004
FFFE
FFED
0008
0018
FFE8
FFF6
0009
FFF8
FFFC
FFFE
FFF7
FFF5
FFFF
FFED
0004
0004
FFEF
FFEA
FFF1
0014
0005
FFF8
001D
0009
000B
0007
FFF8
FFFD
FFFB
FFF3
FFE6
FFE6
000B
0001
FFFC
FFFC
FFE0
000E
000D
0009
0004
0013
FFD3
0000
FFEC
FFEA
FFE7
FFEA
FFF7
FFC2
0028
FFF0
FFDB
FFF6
FFE1
FFEC
0006
0002
0000
FFF1
0013
0005
FFE6
000D
FFDF
FFE9
0002
FFF0
FFF9
0004
FFFD
0011
FFEA
FFFC
0002
FFE3
FFEE
FFE2
0003
FFF4
FFE1
0005
0005
0013
FFED
FFFE
FFF5
FFEB
FFEC
0017
FFEE
FFF4
FFFB
001D
FFD0
FFF1
FFCF
FFF3
0012
0003
FFE0
0010
0003
FFD7
000A
0004
FFC4
FFE2
FFE8
FFF9
0000
FFF2
0003
FFE9
000F
FFF5
FFF7
FFF6
FFF4
0010
FFEF
FFF7
FFEF
000A
0000
FFED
FFE5
FFEB
FFFC
000F
FFFA
0004
FFEA
FFF9
0009
000D
FFEE
FFF5
0008
FFFD
FFF3
FFEC
0004
FFF1
FFFC
FFFB
FFF9
FFF3
FFF5
FFF0
FFEC
FFEB
000C
FFFA
FFFD
FFE8
FFEA
0009
FFD6
FFEC
FFFB
FFD5
000E
FFEA
FFAD
0005
FFF1
FFE3
FFF5
0012
FFE9
FFDE
FFFF
000B
0001
FFEE
000E
FFFC
FFFE
0000
FFF4
FFF8
FFE7
0005
FFFA
000A
FFEE
FFEB
0023
0000
FFEE
FFFA
FFE6
FFF7
FFFA
0001
0006
0000
FFFD
0006
000E
0001
FFFB
FFF1
FFF5
FFE1
0003
FFF9
FFEC
FFF7
FFED
0000
FFE7
FFF3
0011
0008
0014
0001
0000
000A
FFFC
0014
FFE6
FFFB
FFF7
FFDE
000E
FFFF
FFE5
0006
FFF7
FFD7
0000
FFF7
0012
FFEF
FFFA
FFF4
FFED
FFFD
FFFF
FFF7
0006
FFE6
FFF6
0002
0000
FFF7
FFFD
FFF0
FFEF
FFF4
0001
FFFD
000C
0004
0004
0001
FFF1
0001
FFF5
FFFC
FFFF
0011
FFFB
FFFE
FFF3
FFE7
0001
FFBC
FFFF
FFFE
0008
FFE3
0000
FFFC
FFE2
0007
000A
000F
FFF9
FFE2
0020
0002
FFF5
0015
FFFF
FFE7
FFF9
FFE4
000F
FFEF
0001
0010
FFE0
FFDC
FFFB
FFF3
0000
FFF9
FFF8
0008
FFEA
FFFB
FFF8
FFF2
0001
FFF3
0012
0002
0008
0001
FFEF
000C
0003
FFF7
0008
FFFC
FFED
FFEC
0002
FFF5
0005
000B
FFEE
000C
FFF5
0020
FFF3
0003
0011
000C
0005
FFB1
FFE6
FFF7
FFE1
FFF0
FFEE
000B
FFF2
FFF0
0016
0002
0004
FFED
0014
0001
FFEC
0006
FFF9
FFEA
FFFB
FFDD
0001
FFEE
0017
0006
FFF6
FFCB
FFF8
FFF8
FFF1
FFED
000A
FFE8
000E
FFF5
FFF8
FFEB
0005
0004
FFFE
FFE8
0004
FFE8
FFFA
FFF8
FFF5
0001
FFED
FFFC
000C
FFE9
FFF1
FFEF
FFFD
0006
FFF8
0001
FFFD
FFFB
FFFC
FFF1
FFFC
001E
0002
FFF9
FFF4
FFF9
FFFA
FFEB
0004
FFF5
FFF2
FFEF
000B
FFF7
000A
FFF8
0006
FFEC
FFEC
FFF0
FFED
0004
0000
000E
0002
FFFC
0000
0006
FFF8
FFD2
0000
FFED
FFCE
0003
FFF6
FFEB
FFF9
0012
FFFD
FFED
0007
0004
FFF1
FFE5
FFF9
FFE9
FFDB
000D
FFF5
FFEF
FFE1
0002
000D
0007
FFFE
FFF2
0010
FFFA
0000
FFE5
FFF4
0000
0007
0005
0006
0005
FFF9
FFEE
0006
0012
FFCF
FFE0
FFED
FFF6
FFE4
FFEE
FFFC
FFFD
0006
FFEB
0005
FFF7
FFEE
FFF8
FFF9
FFEE
0015
000E
0005
0008
FFE4
FFF1
FFF1
FFD9
FFFA
FFFC
FFD0
FFDB
0000
FFF7
0000
000A
000E
FFFD
0008
0009
FFDB
FFED
FFFC
0000
FFDE
FFF6
FFEF
FFFB
FFD6
0001
FFF1
FFEF
FFEF
FFFD
FFF0
FFEE
FFEF
FFE5
FFF6
000E
0003
FFFB
FFEB
0010
FFF9
FFE1
000A
FFFF
FFE8
FFE1
FFF9
FFE7
FFFA
0000
0019
0001
FFF7
FFF9
FFED
000C
0000
0008
FFD9
FFE6
0008
FFE7
0009
FFF2
FFF0
FFF4
FFEA
FFFB
FFE8
0008
FFFA
FFCA
FFF4
0000
FFEE
FFFA
0003
FFFF
000C
0000
0001
000C
FFF0
0004
FFF8
0004
FFEF
0006
FFC0
000E
FFFE
FFED
FFE2
FFF3
FFF9
FFEC
FFF2
000D
000E
000E
0002
0001
FFE3
FFF6
FFF9
FFEE
0001
000E
0009
FFEA
000F
000D
FFEF
0000
002E
000D
0002
000C
0009
FFF5
0005
FFFB
FFF6
FFEC
FFF6
FFE6
0016
0007
FFFC
FFF1
FFEE
FFDF
0001
FFF8
FFFA
FFEC
0001
FFED
FFF1
FFEF
FFF9
FFEA
FFFE
FFE4
FFFA
FFEA
FFE8
FFFD
FFEC
FFF1
0002
FFE8
FFCE
FFF2
000D
0000
FFE0
FFE2
0008
FFE4
FFFB
FFF5
FFEA
FFEE
FFF7
0007
FFFB
FFDD
000C
FFF8
0014
001D
FFF0
0002
FFFA
FFFA
FFE8
0000
001C
0001
0001
FFE4
FFFF
000E
0009
FFF8
FFD2
FFEE
0007
FFF0
FFFC
000B
FFF9
FFEB
FFED
FFFB
FFDA
FFF2
FFF4
FFF0
000A
0004
FFF3
FFF5
0000
FFF5
FFE9
FFF5
0004
0014
FFF5
FFEF
FFF0
FFEF
FFEE
FFE5
FFBA
0010
FFF7
FFFE
FFE5
FFFE
FFF2
FFFE
000C
0015
000B
0004
FFF5
000D
FFFC
FFC0
0000
0008
FFF5
0019
FFEF
FFF9
FFF0
000C
FFFA
FFE9
FFFC
0000
FFEA
FFFE
0006
000B
0004
0015
FFEF
FFF1
0004
FFF4
0003
0004
FFCD
FFF3
FFF5
FFFA
FFEE
FFC9
FFF2
FFF5
FFE6
FFE4
FFEE
FFE5
FFED
FFF6
FFE4
FFFC
FFF3
000B
FFFB
FFF5
FFF8
FFEA
000B
FFE5
FFD8
FFF7
0001
FFFF
FFEC
000C
FFED
0004
FFF0
0004
000E
0009
FFDE
FFFB
000D
FFF8
FFFA
FFF2
FFFB
001C
FFFF
0010
FFF6
FFEE
0010
0008
0002
0004
FFF7
0003
000C
FFEF
0008
0001
FFE5
0004
0004
FFEE
0003
000A
FFE6
0008
FFF6
0001
FFF2
FFE0
001F
0015
0001
0002
FFEC
0009
FFE7
FFEE
FFDF
000E
0016
FFFE
FFE8
FFF6
000D
0013
0009
0002
FFC8
0008
FFF0
FFEA
0005
FFEE
0006
FFF5
0005
FFF4
FFEA
000B
FFFC
FFF4
FFF6
0000
0000
FFF4
FFF1
000D
000D
FFF5
FFEB
FFEF
0001
0007
001A
0005
000B
FFEB
FFF7
000A
FFF1
FFE6
FFD9
FFEE
FFFD
FFE6
FFF7
FFF1
FFD2
FFF3
0004
0021
FFFB
0007
FFD6
FFFC
0004
FFFC
0000
FFFC
FFED
0001
FFF9
FFF8
000D
0010
FFE6
FFF1
FFF3
FFF7
FFF0
FFEB
FFB2
FFE9
0000
FFF1
0002
0003
FFEF
FFE8
FFF4
000B
FFE9
000A
FFF0
0004
0000
FFF1
0005
0006
0004
001D
0021
FFF0
FFFF
0012
0008
FFF6
0015
FFFA
000C
FFF0
FFEE
FFFA
0009
000F
0000
0018
0015
FFFF
0016
0000
FFF9
0004
0007
0038
0010
FFF5
FFEE
000F
FFDD
FFEA
FFF4
0007
FFFE
FFF1
FFF0
FFF1
FFEB
0005
FFF7
0007
FFF0
FFED
FFF9
FFFA
FFC8
0000
000D
FFF6
0016
0022
FFFC
FFFE
0000
FFFF
000F
FFF5
FFD7
0017
FFFB
0009
FFFC
0011
FFF7
0019
0014
FFE9
FFF0
FFF7
001C
FFED
0011
0011
0009
FFFC
0015
000F
FFFE
FFF6
FFFB
001D
FFF5
0009
0002
0001
FFFB
000D
0005
FFF2
0008
FFFB
0005
FFDC
FFFA
FFF4
FFEE
0010
0015
FFF8
0001
FFFD
FFE5
0007
FFFF
0016
0008
FFFE
FFF6
FFED
FFF5
FFE8
0003
FFFA
0000
0016
000B
FFF2
0012
000A
0004
FFDE
FFE9
FFEF
0003
FFEC
0011
FFD7
FFF8
005A
001B
0009
0000
FFF2
FFFD
0003
0009
000A
FFEF
0010
0006
FFF3
000D
FFEB
000E
0018
000A
FFFE
0012
0004
FFFA
000C
0000
FFBD
FFEB
FFEB
000F
FFC9
FFFD
FFFE
000E
000E
FFF6
FFFE
FFF8
FFF4
FFDE
000E
0001
FFF6
000B
FFEF
0000
FFF1
0006
FFEB
FFF7
FFF9
001B
000A
FFF1
FFEC
000A
FFF2
0008
FFE2
0014
000B
000F
FFE9
0004
FFD3
000D
005D
0017
000C
FFFA
0005
0005
FFF6
0022
0003
0001
0003
FFEA
FFFD
FFF0
FFFC
FFF7
FFE3
FFE8
000C
0017
0005
FFEB
FFEE
FFF3
0015
FFF4
FFFE
0001
0006
FFF6
0010
FFF6
FFF9
0013
0004
FFFB
FFEC
FFE7
0002
000A
0003
0000
0009
0009
FFED
000B
FFF2
FFF9
FFF7
FFF3
001B
FFF2
FFF7
FFED
FFF9
FFFA
0001
001F
0004
0014
0009
0010
000A
000E
001B
0017
FFF1
FFF8
0000
FFF8
FFF4
FFFD
0006
FFF3
FFF0
000E
FFFB
FFEF
0011
FFFE
FFFF
001F
FFFD
001A
000B
FFFD
0007
FFF5
FFF8
FFF6
0006
FFE9
0015
000B
000F
0000
FFF5
0012
000C
000B
000C
0006
FFF0
FFFC
0000
0005
FFF5
0015
000B
0013
0008
FFFE
0011
FFFD
0010
0006
0010
0000
FFFE
000A
FFF7
0018
FFED
0004
FFFC
FFF0
FFE1
0002
000D
FFEE
FFFD
0014
FFF4
000A
FFE9
FFF9
FFF4
000A
000E
FFF8
0002
000E
FFF7
0007
FFEE
0035
000E
FFF9
FFEE
FFFF
FFF5
0009
0009
FFF3
000E
FFF2
FFF0
0012
FFED
000B
FFFB
0014
FFFD
FFFA
0006
000C
FFF9
0012
FFF7
000C
FFED
0000
000B
FFFB
FFF7
0006
0003
FFF2
FFF0
000C
FFFF
FFF0
FFEE
0012
0003
FFFA
0015
000E
000D
FFFC
FFEC
FFF9
FFEE
FFF3
FFF3
0011
FFF9
FFFE
0009
0014
FFFD
0014
0011
000B
FFF8
0001
FFEF
000A
FFF2
FFFF
FFFB
006E
FFF5
FFF0
0003
000C
0014
0008
0009
0015
FFF5
000B
000C
FFFA
0009
FFEE
0001
001B
FFF8
0013
0003
000E
0004
FFF8
FFF8
0002
FFF0
000F
FFEB
FFED
0008
0008
0016
0006
FFFB
000E
0008
000B
FFF8
FFFC
002C
000C
FFFC
FFEC
0009
000C
000A
000A
000B
FFF4
FFEF
0008
FFEF
FFEC
0012
FFEC
FFF6
0008
FFF8
0013
0002
FFC2
FFFE
FFFB
FFF7
FFDE
0008
FFFD
0000
0003
000D
FFF3
0004
003A
0004
FFF2
FFF9
FFFC
0008
FFF6
FFFE
0042
0003
0002
0011
000B
000C
FFEC
0013
0004
0010
FFEE
0014
FFEE
0006
0005
001C
0017
0014
0001
0006
FFFA
0012
0019
0001
FFF7
0000
FFFF
0006
FFF1
0001
0011
0003
FFFF
0003
FFF6
FFF6
0028
FFFC
FFED
0000
FFFF
000F
0017
000A
FFFA
FFEE
0019
FFF8
FFE2
FFF3
FFFF
0002
FFFC
0003
0014
0026
0045
0000
FFF7
0011
000F
FFF8
0007
0027
0052
FFF8
0020
FFF4
0010
0000
FFFC
FFF4
FFF6
FFF7
FFFB
0016
0006
FFFB
000A
0009
FFFC
0019
0011
FFFC
0009
0005
FFDD
FFC4
0005
FFF7
FFF5
0006
FFEA
FFE6
FFF4
FFF7
FFF6
0007
FFF4
0007
0022
0003
0000
0002
FFFF
FFF4
0000
0007
FFF3
0009
0011
000D
0004
FFF4
0018
0004
FFF3
0005
0012
000E
0001
FFF1
0011
FFFD
FFEC
FFED
0011
FFED
0023
0015
001E
FFF6
FFFC
0004
FFFF
FFEC
FFEA
000A
FFE6
FFFF
0009
0006
FFF0
FFF3
FFF8
FFF2
0011
FFEC
0006
FFF6
000D
FFED
000F
FFF4
000F
FFF0
0000
FFB4
FFF9
0009
FFF6
000C
FFEF
FFF0
FFF4
FFFF
FFFE
FFFE
0008
0017
FFF5
FFEA
FFD2
FFE7
0019
0011
000C
FFFD
0017
FFEE
000C
0013
000B
FFED
FFFE
0008
0002
000B
FFF2
000C
FFFB
FFF0
FFF8
FFFE
FFF1
000B
0005
0003
0003
FFF8
FFF9
FFF9
FFF6
0001
FFEE
FFF5
0004
FFE8
FFF7
FFF3
FFF8
FFFF
FFF1
FFFB
FFFD
FFFF
0008
FFF6
0015
FFDA
FFEF
FFDE
FFFF
0008
0002
0000
FFED
FFF5
FFCF
0004
FFEB
FFF1
FFEA
000E
FFEB
FFEA
FFE9
FFE6
0000
000D
0009
FFFC
0009
0007
FFF9
0005
0005
0029
0010
000F
FFFA
FFF1
0000
FFE2
FFFA
FFEB
002C
000C
0001
FFFE
0004
FFEA
000B
0000
000B
FFFA
FFEA
FFFC
FFED
0003
FFEB
FFDF
0006
0002
FFF8
0002
FFEF
FFF8
001A
FFFC
FFF8
FFE9
FFEF
FFD3
FFFC
FFEC
FFEF
FFFF
FFFB
FFF2
FFF5
FFFF
FFF4
0010
0011
FFF0
0012
0006
0006
0002
FFD7
FFF5
FFF7
0002
FFF8
0000
FFF8
FFEC
0002
0018
FFEE
0009
0033
FFFA
0006
FFE9
0005
FFFF
FFF7
FFC8
000A
FFF4
FFD9
0000
FFFB
FFED
FFEF
FFEA
FFE5
FFF4
0006
FFF2
000E
FFF3
FFF2
FFE4
FFEE
000A
0001
FFF4
FFFD
FFFD
FFFC
FFF7
FFFC
FFF1
FFEE
FFEE
FFF9
FFEC
FFF6
FFF8
FFE4
0000
FFF2
001B
FFE6
0009
FFEF
FFEB
0007
0008
0004
FFFC
FFBA
FFF9
0009
FFE8
0003
FFFC
FFD4
FFF9
FFFB
000D
FFF0
0024
FFE8
FFEB
0002
FFF7
FFFE
FFF8
FFF9
FFBC
001B
0010
FFE1
FFEA
FFFA
FFF3
FFEB
FFF3
FFFC
000A
0012
000F
0005
FFED
0003
FFFA
FFFA
0017
0000
FFFC
000A
FFF6
000D
001D
0002
FFE8
000A
FFFC
FFFE
0000
FFFE
000A
FFF4
FFEC
FFF6
FFFE
FFFB
000A
0012
FFED
0010
000D
FFF3
FFE8
FFFE
FFFD
FFF6
FFE5
0004
FFFC
FFE3
FFF2
000E
FFFD
FFEE
0018
0009
FFED
0005
FFEB
FFEA
FFE1
FFEB
FFE7
0019
FFF8
000D
FFE9
0002
0004
FFEA
FFFA
FFFA
FFEB
0009
0000
0006
000B
FFFE
FFF5
FFF2
0009
FFFA
FFF9
0000
0008
000E
FFFB
FFEE
FFDA
FFF6
000E
0005
0010
FFEE
FFF9
FFEC
FFFA
FFE6
000A
0000
000C
0013
FFF8
0000
0005
FFE5
0020
FFFF
0000
000A
FFD1
FFF0
FFF3
FFE3
FFFA
FFFC
FFFE
000E
001A
FFF9
FFFE
0004
FFFF
0008
0001
0003
0010
0007
000E
000C
FFF2
FFF7
000D
FFEF
FFE7
FFF1
0010
FFF4
0006
FFF6
FFEC
FFF8
0024
FFEE
0000
FFF6
0007
FFE7
FFFF
000B
0015
FFF6
FFDF
0008
FFE0
0006
0017
FFD7
0005
0004
0005
FFD1
0000
000B
0009
FFEF
FFFC
0020
0007
FFFA
002C
FFF2
000F
000D
FFCB
0004
FFED
FFB3
FFF0
FFE7
FFFC
FFF8
001C
0006
FFD6
0000
0009
0007
FFF5
FFED
001D
FFE1
000E
FFFB
FFED
FFDA
0008
FFDE
0006
0007
0012
0016
0007
0008
FFEA
0000
0000
FFEE
FFF7
FFE5
0001
0009
0007
0004
0000
000D
0004
FFFF
FF9B
FFF4
FFFD
FFF0
FFE4
FFF8
FFFE
FFE3
FFFB
FFEF
0006
FFEA
FFFF
0013
FFE8
FFFB
0018
FFF6
000D
0013
FFD1
FFFB
FFE8
FFE3
FFF7
0002
FFEB
0003
000A
0003
FFF4
0000
0016
FFEC
FFFF
0003
FFFC
FFF4
FFEE
FFF3
FFEF
0010
FFEC
FFF7
FFF9
0001
FFF9
FFF8
FFF4
FFF0
FFF2
FFE0
0008
FFEE
FFFF
0006
FFF6
FFEE
0020
FFE5
FFFE
000C
001F
0000
FFD1
FFE2
0003
FFFF
FFFA
FFEE
FFE4
FFE6
FFF2
000C
FFE8
FFF6
0000
0012
FFEB
000F
0013
FFEC
FFE9
000B
FFDA
000C
FFEB
001E
0010
FFE1
FFF0
FFFE
0007
FFED
FFE0
0005
0009
FFF8
FFEF
FFF4
000B
FFF2
0009
0008
0005
FFFD
FFF6
FFDB
FFFC
FFFD
FFF2
000A
FFEE
FFEF
FFF7
FFF9
001A
FFEE
0001
FFED
0004
FFEC
001B
FFFA
000B
000D
0013
FFEA
FFEC
0003
FFF4
0006
FFEA
000C
FFEF
FFD6
0001
0019
0008
0002
FFF7
000D
FFEE
FFEC
0008
FFEC
FFFF
FFFD
FFD3
0010
FFE5
000E
FFEA
FFE4
FFC6
FFF5
FFFD
FFF2
FFF6
FFEB
FFE5
FFF3
FFF9
0002
FFEE
FFF9
FFF5
FFF5
0002
0015
FFFC
FFF8
FFFF
FFFE
0009
FFD2
0006
0009
FFFD
FFED
000B
FFF9
FFEC
0006
FFE6
FFE9
0000
FFF1
FFF7
FFFD
FFF8
0003
FFFC
FFF5
0010
FFF9
FFF9
FFED
FFFC
FFE4
FFE5
0008
000B
0000
FFE4
000A
FFF2
FFF6
FFEB
000D
000B
FFFE
FFF8
0004
000A
0007
FFFE
FFFA
FFDA
FFF9
FFF2
FFE9
FFD6
0002
FFF7
0003
0000
FFFB
0004
FFFB
FFF9
000F
0000
FFFD
FFFF
FFE6
000D
FFE5
FFF1
FFBE
0004
FFFB
0003
FFE0
0004
FFF7
FFFD
FFEF
FFE3
FFF5
0006
FFEB
0004
000E
FFFA
0000
FFFF
FFE1
FFF8
FFF0
FFF4
FFFA
FFE9
FFF0
0001
0015
FFFB
FFF9
FFFF
FFEF
000F
0009
FFEA
FFF6
000D
0005
0007
000F
FFE7
0000
0001
FFE0
FFE9
FFDF
FFFC
FFE8
FFEC
0007
FFEB
FFFC
FFFD
0003
FFEA
0003
FFF9
FFF9
0008
FFF9
FFE8
FFD5
0007
FFE6
0001
FFB6
FFF5
FFF4
0001
FFE7
FFEE
0006
FFE3
FFF9
FFF6
0000
000E
FFF5
000A
FFE5
FFFD
FFF9
0002
FFFA
0018
0000
0003
FFF2
0007
FFDB
FFEF
0011
FFF0
FFFE
FFE8
FFF3
000D
FFF1
FFF9
FFD8
FFEE
0002
FFFC
0001
FFFD
FFFE
FFEA
0009
FFF5
0002
0004
FFEE
FFDD
0004
0010
FFF6
FFFE
FFFE
FFF9
0011
FFE7
FFFD
FFEA
FFE9
0007
FFDD
FFFE
0008
FFEC
FFB0
0005
FFEF
FFF4
FFCC
FFF6
FFEF
FFE3
0007
0007
000D
FFF9
FFFA
FFF9
0007
FFE3
000C
000A
000A
000A
FFEC
FFE4
0000
000C
FFFA
FFF5
0008
FFF1
000F
FFE8
0013
0000
FFEF
0015
FFF6
FFFF
0000
FFFF
0002
FFE9
FFFF
FFFA
FFF9
FFF9
FFF8
0020
0017
FFF1
FFED
FFEF
FFFD
0004
000C
FFDA
0001
FFF4
000F
FFF6
FFD9
FFE5
FFF6
0001
0001
0002
FF9C
FFEF
FFE8
FFF9
FFD3
FFFC
0008
FFF4
FFF5
000E
FFEC
0008
FFED
000F
FFF5
FFEF
FFFA
0006
0008
0028
FFEE
FFF4
0000
000B
0006
FFEC
FFFD
000C
FFEA
FFE3
0015
000B
000C
0000
FFDF
FFF0
000A
0000
000B
FFFD
FFE8
FFEF
0002
0001
FFF5
0003
FFF9
FFE3
0009
0009
FFE6
FFEA
0002
FFDF
0006
FFF8
0002
FFF2
FFF1
FFFA
FFF0
FFF1
FFF9
000E
FFB5
FFF1
FFF6
FFF0
FFF9
FFF2
FFFD
FFF3
000B
0004
FFF6
FFF5
FFF1
FFF9
FFF4
FFCE
0007
FFF9
0003
0011
FFFF
FFFC
0005
FFFC
0003
FFF4
0002
FFFB
0010
FFF0
000D
FFEC
FFF1
0010
FFE1
000F
0009
FFED
0009
FFFE
FFE8
0010
FFED
FFFA
0004
FFFC
FFE9
FFE6
FFE9
FFE2
000B
FFF7
000E
FFF5
0002
0006
0010
FFFC
0002
000C
FFF5
FFF2
FFF6
FFF1
FFD4
0005
FFEF
0004
FFEE
FFF8
FFEF
FFEF
000C
0004
000D
FFF4
FFE7
0002
FFFD
FFF9
0004
0010
FFED
001E
000C
0017
FFF4
000D
0007
0007
000B
0000
0011
FFE2
0014
0002
FFF3
0000
FFDC
0009
FFF7
FFCF
FFFB
000E
FFFA
FFEE
FFE7
0001
0002
FFE8
FFF5
FFF3
0000
0001
FFF4
000B
FFF3
000E
FFFE
FFF1
FFEF
FFEA
FFF5
0011
0005
0006
0008
FFF3
FFC4
FFF5
0000
FFFD
FFE1
001C
FFFC
0005
0000
0005
0007
0008
FFEC
0003
FFEC
FFFB
FFEB
FFF9
FFEA
001E
0019
0003
FFE9
000C
0003
FFF9
FFF8
000C
0000
FFF1
FFF8
0004
0009
FFFE
FFF6
000C
001A
FFD4
FFF2
000D
FFE8
0000
FFED
0025
FFF0
001C
FFF7
0015
FFF6
FFF6
FFFB
000D
000B
FFFE
FFFB
FFF5
000E
0001
FFEF
000B
0004
0013
0015
0000
FFA3
FFF8
000C
0003
0000
0029
0006
FFF5
FFF7
FFF3
0016
FFF9
0019
0012
FFF2
FFEC
0000
0009
FFF1
0017
0018
FFFF
0003
FFF4
000F
FFF4
000D
0006
0007
0010
FFFF
0010
FFFF
FFFE
FFF6
FFF7
FFEC
FFFC
FFED
000A
FFDD
FFEE
FFFB
002B
FFF1
000A
FFE8
0027
FFFB
000C
0016
FFF9
FFE9
FFF9
FFFB
0001
000B
0006
FFFA
0008
FFF4
FFEA
FFF5
0001
FFB5
FFEE
FFF0
FFEF
FFFE
0017
FFFB
0009
FFE6
FFEF
0017
FFEA
FFDD
0007
FFEC
FFFF
0005
000D
FFF9
0000
FFE9
FFF0
FFFC
FFF8
FFF6
FFF4
FFFC
FFFB
FFF6
FFF3
0022
FFF0
0007
000E
000F
0006
FFC5
FFF8
0008
0010
FFF0
FFEE
0009
0005
FFF2
0005
FFF7
0010
000E
FFF0
FFF9
FFEE
000F
0001
FFF5
FFF4
0004
FFFB
FFE8
FFFC
0000
000A
FFF5
000F
FFC0
FFEB
FFF8
000E
FFF3
0022
0000
0003
FFEC
0004
0019
FFF5
FFEC
000A
FFFB
000F
0001
FFCA
0007
000D
0021
FFF4
FFF8
0013
001C
FFEE
0001
0012
FFF7
0000
FFE8
FFE9
FFF9
000F
0013
0018
FFF6
0008
0034
0009
FFF3
000D
000C
FFBF
FFEE
FFFB
FFF5
FFD8
FFF9
FFF6
000C
FFF1
0001
FFFC
FFE9
FFFE
FFE5
FFEC
0008
0001
0002
FFFE
FFF8
FFF9
0003
FFEF
000A
0009
0017
0031
000F
0006
0007
FFF0
0011
FFE6
0016
FFE3
FFEF
0003
0004
FFDF
0007
001D
FFFC
001B
FFFD
0004
FFEE
FFF9
002D
0002
FFFC
0003
FFF5
000C
FFF1
FFD7
FFE6
0006
FFD8
FFFD
0003
FFFA
FFF6
FFF8
FFED
FFFC
FFEC
FFFC
0022
000E
FFEE
FFF1
0003
FFF5
FFED
0006
000D
FFFC
FFEF
FFEB
FFEB
FFFD
FFF7
FFF1
0015
FFF4
000A
FFF9
FFEA
FFF9
0013
001D
FFED
FFF8
FFF8
000E
FFF9
0000
0003
FFDA
000D
0007
FFED
FFDF
FFFB
0056
0002
0003
000F
FFFE
0012
FFF5
002A
000F
0008
0004
FFF2
FFFF
0002
FFFC
0009
0002
0004
FFF9
0009
FFF6
FFFB
FFFD
0005
FFEA
FFED
FFFE
FFE6
001E
FFFB
FFF1
FFF0
000A
FFF1
FFF8
FFF2
0008
0028
0012
FFF4
FFF7
0009
FFFE
0000
FFF3
FFCC
FFEF
FFEE
FFF3
0004
FFFE
FFF3
FFFF
FFFB
FFF2
0006
FFF6
001D
FFDD
0015
0004
0010
FFFA
0007
0020
0018
0013
FFF2
0010
FFF0
000A
0007
FFED
FFEE
FFFA
000C
0006
FFF5
000F
0019
0004
0016
FFEF
FFFD
0010
0004
FFFF
FFFC
FFF8
FFEC
0001
0004
FFFB
001B
FFF2
0002
0001
0007
FFFC
0004
FFF3
FFEC
FFFB
000B
FFFF
FFF9
FFF8
FFEE
FFEC
FFFE
000C
0000
000A
0000
FFF4
FFF0
FFF7
FFF4
FFFA
FFF0
FFFA
FFFF
FFFF
000E
FFF8
FFFE
000C
000D
FFF5
0003
FFEF
FFFC
FFF9
FFF9
000A
FFCF
FFFE
FFEC
000A
0004
000B
0009
000C
0014
0001
FFFA
000B
0017
0011
FFF6
FFFC
0013
FFD5
FFF4
FFF9
005F
000C
0010
FFF3
FFFB
000A
0010
0002
002B
000F
0003
FFF0
000B
0001
FFF8
FFFF
000B
FFF8
0011
0010
0010
FFFD
000A
000D
FFF3
FFF1
0012
FFEF
0009
000B
0019
002A
FFF5
FFF1
FFED
0000
0008
FFFE
FFEF
FFF0
0004
0006
000C
0000
001B
FFFA
FFF7
0007
FFEC
FFF6
0007
0016
FFDD
0013
0016
0009
FFEE
FFF7
0000
000E
FFF3
0030
FFF1
000C
0029
000D
FFFC
FFF6
FFED
0008
FFF2
0004
0038
000D
000C
000C
0018
000E
FFEF
000F
FFF1
0000
FFF2
0001
FFFD
0006
FFEC
001C
0011
FFF3
FFF9
0009
FFFA
0013
0026
FFDD
0013
0001
FFEB
000B
FFF2
FFF3
0006
FFF4
FFF7
FFED
0010
0008
0009
FFEE
FFED
FFF7
0002
FFF3
FFFF
0006
FFEF
FFFC
0018
0003
0021
FFF6
0009
FFEE
0012
001C
FFEF
001E
0034
FFF2
0006
0009
FFF1
FFFD
FFF0
000C
0045
0013
000D
0011
0000
0009
FFF7
0012
FFF6
0013
FFE4
0006
000F
0007
0004
FFF6
FFFC
0015
FFF4
000E
FFFB
0009
FFCD
FFFC
FFEC
0011
FFEF
FFF1
000D
FFE4
0011
0000
FFFD
0003
000D
FFF8
003B
0009
0000
FFF5
0007
0000
0003
0009
FFFB
FFF0
003B
0004
003B
000E
000F
000A
0006
0014
0000
FFF6
0009
0013
FFF1
FFF2
FFF6
FFEB
0010
FFFC
0013
FFF4
0009
FFEB
FFFE
FFFE
000D
0000
000A
000C
FFEF
FFF3
0006
0012
FFE1
FFEA
FFF7
FFFC
FFEF
FFF9
0009
0018
0001
0014
FFEE
0003
FFF5
FFF2
FFFA
FFA0
FFF8
FFFF
000E
FFEE
FFE8
FFF0
FFF2
FFF2
0004
FFFC
FFEC
FFF8
000B
FFD9
FFDE
FFE9
001C
FFEC
0001
FFF5
FFF2
0003
FFF8
001B
FFF6
0001
FFF0
FFEC
FFF1
0003
FFEE
000E
000F
0005
001E
FFFD
FFE5
000C
000D
FFE7
FFF9
000F
0002
FFF5
0006
FFFF
FFF4
000E
0001
FFFF
FFF8
FFDE
FFF0
FFF2
000F
0005
FFD8
FFF5
FFF7
FFE7
FFF8
FFF1
0005
FFEC
FFF6
0005
0001
0005
0007
0003
FFD9
FFF4
FFFF
FFE9
0011
0003
FFEB
FFDE
FFCE
FFEF
0007
FFF0
0003
FFFA
FFEE
FFF3
0005
0008
FFF2
FFFF
FFF8
0011
0011
0006
000B
0006
0008
FFE8
FFFA
FFFB
0000
FFFE
FFE5
FFEE
FFFE
0004
FFF7
000B
FFF5
0001
0001
0000
FFE0
FFED
FFEB
FFF8
FFF4
0005
0004
FFF7
FFFA
FFF4
0008
FFE3
0000
FFF9
000F
000B
FFEB
FFE9
FFF0
0001
FFF8
0002
0001
FFEE
0013
000A
000D
0011
FFEB
FFDC
0000
FFDA
0012
FFFE
000A
0004
FFF6
FFF1
FFF6
FFF9
FFF0
0012
0017
FFE0
FFEC
0005
FFFE
0005
FFF2
FFDC
0019
FFF2
FFED
0006
0007
FFFF
FFED
000D
FFFB
FFF8
0004
FFFE
FFFE
0000
0007
FFE9
FFE8
FFFC
FFEB
FFF6
FFEE
FFFE
FFE6
FFFF
FFE6
FFCA
FFEF
FFFC
0009
FFFA
000E
0006
0007
000A
FFF6
FFF9
FFF3
000B
FFEC
FFF4
000C
FFE8
000E
0011
FFC5
FFF1
FFF0
FFEF
0007
0002
0010
000E
FFF7
0000
FFFB
0029
FFFD
FFF3
000A
000D
0000
FFE5
0002
FFD9
0008
FFE7
0000
FFEE
FFF5
FFF7
FFE4
0007
FFFE
000A
0004
FFF5
FFF6
0008
FFEB
FFF7
FFFE
FFF9
0000
FFFC
FFF6
FFFB
FFE8
FFF9
FFEE
FFDF
000D
FFF5
FFEC
0002
FFDF
FFF4
0005
0003
0009
0000
0007
FFED
FFFA
FFE6
FFFF
FFF1
000E
001B
FFEA
000C
FFF5
0005
FFFB
000B
FFFE
FFEB
000D
FFFC
000A
002A
FFFF
FFD0
FFF5
FFF8
0010
FFFB
FFE6
FFF0
0033
FFEA
FFF7
000D
FFDF
0010
FFED
FFF0
FFE2
FFFF
0015
FFF9
000D
FFF0
FFD9
0008
FFF3
FFF3
FFFD
000C
FFE7
FFF8
0001
FFF3
FFF0
FFE1
000F
0000
0002
FFF1
FFD9
FFFB
FFEE
FFF8
FFF3
0009
000A
FFEF
FFED
000E
0000
0007
000B
0011
0001
0004
000B
FFEF
000E
FFEF
FFF2
0008
FFF9
0005
FFF5
001B
0017
FFCF
0004
000F
FFF5
FFE6
FFFC
000B
0038
000B
FFE6
0000
0000
000B
FFF9
FFFB
FFEE
000B
000A
0008
000D
000F
FFF1
FFFA
FFEF
FFF5
FFFD
0004
FFF5
0004
FFFA
0007
FFE8
FFEF
FFFE
FFE0
000A
000A
FFFA
FFF4
FFE5
FFF0
FFDC
000A
0008
FFE8
FFFE
FFE7
FFE8
0000
0007
FFFD
FFFF
FFFC
0008
FFEC
0009
000E
FFD7
FFF0
FFE4
FFF6
000C
000A
FFF7
0009
FFF5
000D
FFF2
FFD9
FFF6
0008
001B
FFF0
FFF4
FFF2
FFF3
FFFA
0001
000F
FFEB
000F
0003
FFFA
FFFB
FFF6
FFF1
FFE1
FFF1
FFF1
FFF5
000A
FFF5
0004
0016
0011
0001
FFF7
0001
FFAA
FFFB
000D
FFF1
0003
FFEF
FFFB
FFFF
FFFD
0004
FFF4
000B
0002
FFF9
FFED
0001
000E
0009
FFDF
FFFA
FFE7
0016
FFF5
FFE4
0001
FFFF
FFEE
FFF5
0004
0008
FFF3
FFFE
0002
FFF5
FFF6
FFEE
0013
0004
FFED
0005
0007
FFF0
FFF4
FFD8
0000
FFEF
FFF7
FFFA
FFF5
0013
FFF4
FFED
0008
0004
FFE2
FFF6
000B
0010
0004
0002
000C
FFF5
FFF3
FFFC
FFBF
FFE4
0007
FFFB
FFE7
0004
FFFF
FFF0
FFF6
0000
FFF5
FFFD
FFEA
FFEF
0007
0008
000A
000E
000B
0006
FFE7
0008
FFFD
000C
FFFF
FFE1
FFE3
FFF8
000C
FFEA
FFF2
FFE7
FFEE
FFFB
FFE0
0001
0003
000B
FFFB
0004
FFFF
FFF0
FFEC
FFF8
FFF3
FFFA
FFEB
000B
0000
0001
FFF5
FFF1
0011
FFEF
FFFB
0000
FFE8
FFF1
FFF8
0002
0009
FFFE
FFED
FFF1
FFD9
FFE4
FFEA
FFF5
FFE7
0007
FFD6
0013
FFFC
0005
FFF3
FFEB
FFFD
000B
0004
FFEF
FFF2
000C
FFFA
0010
FFDD
0017
FFFE
0016
FFF0
FFF3
FFCB
FFEA
001D
FFDC
FFF1
FFF7
FFEC
0010
FFFF
000A
0024
0009
0006
000A
0001
001B
0008
FFF4
FFFB
FFF2
0000
FFC1
FFE9
000B
000F
FFF7
0005
FFE8
000B
FFE6
FFFF
000D
0010
FFFF
0000
FFF8
FFC9
FFED
FFF1
FFF5
FFF3
FFEB
FFFE
FFF4
FFD2
0002
0000
0006
000F
FFF6
FFE0
0012
FFE9
FFF5
0014
FFF7
FFFC
0010
0000
0004
000D
0018
0000
FFF5
FFE9
FFDE
0007
FFEC
FFFF
FFE6
FFF1
FFFE
FFF4
FFF1
FFF8
0017
FFF9
0001
0004
FFE8
FFF4
FFFB
FFE8
FFFA
FFF4
FFAB
FFF6
FFF5
FFE8
FFF4
0010
FFF6
FFF3
0009
0000
0006
001B
0002
FFF1
FFEF
FFF8
FFF6
FFF3
0006
0000
000B
FFF4
0003
FFF4
0005
FFFE
0005
FFEE
FFEC
FFF3
FFF3
0006
FFFF
0000
FFE2
FFEB
0010
0010
0007
0007
FFFD
FFFA
FFE6
FFEF
FFF1
FFF8
FFF9
FFDA
0000
FFEC
FFEA
000B
FFF0
FFF2
000A
FFFC
FFFE
FFE6
FFEC
FFF3
FFE2
000F
FFEE
0002
FFAD
0004
000E
0005
FFF7
0002
0000
FFEF
0000
000D
FFEA
0008
FFEE
FFFF
000E
FFF5
0000
000A
0004
FFFB
FFFB
FFED
0000
0004
0000
0009
0002
FFFD
FFFE
FFE0
FFF4
FFEF
000B
001A
FFE7
0001
001B
000E
0007
FFF1
0010
FFFE
FFF9
FFFB
FFFB
0013
FFF8
FFF1
FFE8
FFEF
FFF6
FFE9
FFEE
FFD0
000A
0009
FFF3
FFF8
FFDA
0009
FFFC
0008
0015
0008
FFC1
0010
0005
0002
FFF5
000F
0000
000E
FFEF
FFF3
0005
0000
FFF3
FFF4
FFF4
0002
0001
0015
0004
0012
FFFB
FFEC
FFED
FFF1
FFFC
FFF3
FFF6
0010
0012
FFF0
FFFE
0013
000D
000D
FFF2
0003
0014
000A
0006
FFFC
FFE4
FFF6
0009
0000
FFEB
0002
0011
FFE9
0007
FFF7
000B
FFEA
0004
FFCF
000E
FFFB
FFF6
FFFB
0001
FFFA
FFEC
FFFC
FFF4
000F
FFBF
FFF4
0001
0002
FFF6
002E
FFF7
FFF1
FFF7
0005
0000
000D
FFF6
0000
0002
FFF2
000D
FFFE
0003
000A
000D
FFE1
0001
FFE1
000B
0006
FFFF
000A
0000
FFF1
FFF6
000D
FFEB
0020
FFE0
0005
000F
FFFD
000A
FFF9
FFFD
FFF9
FFED
FFFF
FFF1
0008
FFF2
FFEC
FFEE
FFF3
FFFC
FFFA
FFFE
FFD5
0002
0000
0013
FFF0
FFF2
0002
FFEE
FFF8
000D
000C
FFF8
000D
FFF9
0001
FFFF
0034
FFFE
FFE2
FFE8
0004
FFF5
0005
FFFD
000A
FFED
FFDC
FFFF
0007
000B
002F
001D
0006
FFF8
FFE6
FFFF
FFF2
0000
FFF0
FFF6
FFFA
FFF5
FFF8
0009
0017
FFE9
0016
0002
FFE2
0003
0009
FFEA
FFF2
0002
FFFB
FFF5
FFF0
0000
000B
FFFC
FFE6
000C
0007
0006
001E
0008
FFEA
001B
FFFD
FFD5
FFF3
FFE4
0003
0000
FFEE
FFF6
000A
FFF1
0011
FFE8
0022
FFEB
FFFC
0000
FFFA
FFF5
0007
000C
0000
0009
FFE7
000E
FFFD
FFFC
000D
001B
0015
0011
FFF0
0021
FFFF
FFF5
FFEF
FFF8
0000
001E
FFFE
0005
0014
FFFD
FFF7
0001
FFF5
FFFB
FFFF
0005
FFF7
FFEB
FFFD
FFF3
000B
FFFE
0000
0000
0007
0009
0002
0006
0001
0013
FFF5
FFF8
FFFF
FFE7
FFFB
FFF1
FFFC
000B
FFE5
FFEC
FFF5
0012
0012
FFDF
002F
0009
FFF4
FFEE
FFE8
FFF6
FFE9
FFEF
0002
FFEE
FFFC
FFF3
0003
0008
000B
0027
0010
0004
0000
0011
FFFB
FFFA
000A
0001
000A
0009
0008
0000
FFF7
000F
001A
0008
FFE0
0010
0000
FFEE
0005
FFF2
FFF4
FFE9
000E
FFF9
FFE5
FFEC
0009
FFFF
FFFF
FFFA
FFFC
FFFE
0000
FFFF
0009
FFFB
FFF6
FFDF
000A
000C
FFF7
FFD8
0000
0012
FFF7
FFF7
0022
FFE7
0008
0009
FFE2
FFEE
FFFD
FFFC
FFFE
000C
FFEE
0012
000C
FFF1
FFE7
0019
0001
FFF5
FFF1
FFFA
FFFB
0007
FFEF
FFF1
0000
0008
FFFD
000F
FFF6
0010
FFFF
FFF9
FFF4
FFDB
0008
FFF8
0009
000B
0006
0008
0005
0011
0009
0000
FFFC
FFFB
000C
FFF7
FFF5
FFEE
000B
0000
0009
FFF4
0005
FFEA
FFFF
000A
0005
FFBA
0005
FFEF
0002
FFF9
0036
FFFF
FFF1
FFEC
FFFE
0004
0007
FFD9
000A
FFED
FFE4
FFF8
000B
FFF3
0001
001A
FFF0
FFEC
0003
000A
FFEF
FFF3
FFFD
0010
0010
001E
FFFC
FFFD
FFED
FFEE
0022
FFD6
FFEF
FFEE
FFF9
FFEA
FFEE
FFF1
0012
0010
0028
FFF0
001E
0000
FFFD
FFFD
FFF1
FFFD
000C
FFE4
FFF7
FFEB
000D
FFEB
FFFA
FFF0
FFF4
0010
FFF2
FFD7
FFE9
0004
0002
FFFB
0022
FFFA
0005
FFF6
FFEE
FFF1
FFC7
FFB4
0010
0009
FFF2
0005
FFD0
FFF0
FFE1
001F
0016
000F
0006
000D
000E
0019
FFF5
FFEE
FFEC
0015
0003
000B
FFF3
0021
0027
FFC8
FFFF
0019
0003
FFE8
0004
000C
0005
0012
0004
000D
001B
0008
0009
FFFE
0006
FFEB
0007
FFCD
FFF6
FFCC
000B
FFEF
0006
0011
000D
0019
0015
FFF5
0006
FFF1
FFEB
0000
0016
0012
0009
0006
FFEF
0010
FFD3
FFD4
0007
0009
FFF9
FFEC
FFD5
0003
FFCC
0034
0012
FFF7
FFFC
0008
FFFC
000B
FFF0
FFFF
0008
000E
0001
FFEC
FFDB
0011
0021
FFD4
0000
FFFF
FFF9
FFED
000D
0001
FFEA
0015
0012
0020
FFFF
FFEA
FFF5
FFFC
000E
0005
000F
FFEA
0008
FFEF
0013
0004
FFFE
FFF0
000C
FFF1
0012
FFE2
0003
FFFA
0005
FFF5
0024
FFF3
0002
000A
000D
FFF1
000F
0002
0040
FFF9
FFF5
FFFF
FFE1
0010
005D
0024
0004
0003
FFF7
FFF8
0017
0002
0000
0013
0008
FFEC
FFFF
0009
FFE9
FFED
0019
FFEE
0012
FFFD
FFFB
FFF7
FFFA
0009
0004
0008
000E
FFF0
0026
000C
FFEE
FFEE
FFFA
0004
000F
FFF1
FFF4
FFEC
FFF2
0000
FFFE
FFF8
000A
FFF7
FFFA
FFDB
0003
0006
0001
FFF1
0022
FFF7
FFFF
0011
FFEF
0013
FFF0
FFF3
0048
FFF6
FFFA
FFFD
0003
0009
0000
000B
0003
FFEF
FFFE
0005
000D
0007
0010
000D
FFF2
FFFD
FFF9
FFF2
FFF2
FFD2
001C
FFEF
FFF2
0002
0009
FFEF
0014
0013
FFFA
000D
0000
000F
FFF0
FFF6
FFEB
000E
0007
000B
FFF4
000E
FFF8
0001
0000
000E
FFF2
FFF4
000D
0013
FFFB
0014
0013
FFFA
000A
0013
000B
0007
0005
FFEC
0010
FFF1
0012
0011
FFFB
FFFC
FFEC
FFF0
0006
FFF0
FFEB
0012
FFF0
FFFB
0006
0014
000E
FFFE
0003
FFFA
FFED
FFEF
0004
FFFB
000B
FFFF
000B
0012
000C
FFEC
000E
FFF4
0002
FFED
FFED
0014
FFF6
0056
0008
000C
0000
0002
FFEE
FFFF
000D
0004
0004
FFF7
0014
000B
0011
FFEE
0009
000A
FFEC
FFF5
FFF0
0000
FFF8
0021
0004
0000
FFF9
000D
FFF1
0004
FFFC
000A
FFF1
FFFA
0014
FFEF
0005
000E
FFFF
000D
0010
0002
0009
0000
FFFD
0016
0014
FFEB
0003
FFF1
FFEE
0001
FFF7
FFD8
0013
0003
FFF6
001A
FFEF
0008
FFFD
0001
0020
0000
FFE0
FFEB
FFF4
FFED
FFF6
000E
FFFB
FFF3
0000
FFF3
FFF3
0007
000F
000E
FFE6
FFF7
FFFE
000D
FFF8
0003
FFEC
000D
0016
0016
003C
0009
FFF3
0002
FFF5
FFEB
001C
0013
FFCB
FFED
FFF4
0014
0013
000B
FFE2
0006
FFF6
0002
0008
FFF1
000A
0016
FFED
FFFE
FFF0
FFF4
000E
FFF3
001B
FFFA
FFFC
000E
0005
002E
FFEF
0004
FFF5
FFF3
0006
0014
001D
000F
FFFC
0002
FFEE
FFF8
FFEC
FFEE
0014
0028
FFF4
FFE7
FFED
0007
FFF9
0003
FFF3
0013
000C
0017
FFF8
000C
0007
FFFE
FFF5
0009
000D
0000
FFEE
FFF0
001F
001F
0017
000C
FFF9
FFFB
0005
0000
FFE2
FFF1
0009
0009
FFF4
FFF2
0005
000B
FFEA
FFF7
0007
000B
0016
0004
FFF1
FFCB
FFD9
FFEC
FFFC
0014
0000
000F
FFF1
FFF8
0006
FFFC
0001
000A
FFF1
FFEF
000B
0013
FFE8
000E
FFD3
001C
0002
0009
0002
FFFD
0000
0016
000D
0015
FFF2
001D
0002
FFFB
FFF9
FFFF
FFFA
0012
FFF0
0002
0005
FFE9
0030
0000
FFF9
0015
FFF1
FFF5
0000
FFFF
0008
FFFE
FFEA
0007
FFF1
0009
000E
FFEB
0007
0012
FFF7
001D
0014
0001
FFD2
FFC4
0002
0014
FFEE
FFFF
000F
0000
0011
0005
0005
FFF2
0014
FFFB
FFFB
FFF1
FFEF
FFEC
0002
0005
FFD3
0012
0009
FFEC
FFEF
FFF6
0004
000A
FFFA
0009
FFE8
0012
0006
FFF8
0002
FFFB
FFE1
0007
FFDA
0006
000E
FFE9
0036
0009
FFF9
FFEF
FFE7
0013
FFEE
0000
FFF0
FFEF
FFF3
FFF4
FFE9
000B
0002
FFF8
FFEE
FFF5
0002
FFFA
000B
FFF9
FFF2
FFC0
FFF4
FFFE
000B
FFFF
FFEC
FFFF
000C
FFE4
FFFD
FFFF
FFEE
0015
FFE9
0003
0002
000B
0006
0004
FFCF
0012
000A
FFF0
0007
FFEB
FFF5
FFEF
FFEB
000A
FFEA
FFE6
0003
0000
0005
0001
0019
FFEE
FFF6
0007
0005
0007
FFF9
FFF8
001D
FFF6
FFED
0008
FFDD
0005
0009
0003
FFEE
0000
FFFE
000A
FFFC
001A
FFFF
FFF9
0005
FFEE
000B
000C
FFEF
FFFA
FFF2
FFE9
0007
0006
FFF6
FFE9
FFF0
FFFF
FFFD
FFFC
0011
001C
FFF9
FFF7
0011
FFEA
FFE5
FFF0
000A
0004
0008
FFF2
FFEF
FFE3
FFFA
FFEE
FFEA
0008
FFF0
0009
0013
FFEB
0002
FFFF
000B
0009
0002
FFDE
FFEE
000A
0006
FFEB
FFF1
FFF4
FFD1
FFF7
FFE4
FFF2
FFF5
FFF8
000C
FFEF
FFE3
0008
FFED
0001
FFF4
FFFF
0006
FFFB
FFF7
FFF9
0009
FFE6
FFF3
000A
000E
0001
0004
FFF4
0003
0009
FFF4
FFEF
FFEC
FFFC
FFFD
FFF9
0011
0013
FFFA
FFEF
FFDA
0011
000E
000F
FFFB
FFF9
FFEE
FFF7
FFEA
FFEF
FFE8
000C
FFF1
000A
FFF6
0000
FFF4
0005
FFF8
FFE9
FFF2
000B
FFEB
FFF3
001E
FFEE
FFDF
FFEE
FFEA
FFF9
0007
FFE8
000B
0004
000A
000E
FFFB
0000
FFF4
0000
FFEB
001E
FFEA
FFF7
0003
FFEA
000D
FFDC
0001
0005
000A
FFF5
0007
FFF0
000F
0001
000E
000B
FFFB
0008
000E
FFEC
FFE7
FFF1
FFE9
0005
FFFE
0006
0004
0004
0002
0003
FFF6
FFFC
0006
FFFE
000A
FFF5
000D
FFEB
000E
FFE9
FFEE
FFEC
FFFB
FFFE
FFFA
FFFB
0013
0003
0013
0000
0009
FFF8
0012
FFE4
FFFA
FFED
0007
FFF6
FFF6
0004
0001
FFEE
FFFA
FFEF
0005
FFF1
001C
0004
0020
0000
FFEF
FFE9
FFF8
0009
FFFA
FFF2
FFFD
FFE5
FFF4
FFFF
FFF8
0005
FFEF
FFF7
FFED
0007
FFF4
FFFB
FFFE
FFE8
FFEA
FFEB
FFFE
FFEE
0002
0009
000A
0006
000C
FFEE
FFEE
FFCC
0012
FFFF
FFF5
FFEF
000A
0001
FFFE
0004
0008
FFF9
001E
000F
FFF0
0005
FFF9
0011
FFEB
0009
0001
FFFA
0006
0008
0006
FFF7
0000
0000
0004
FFFF
0006
FFF3
0011
FFFD
FFF9
FFE3
FFF4
FFDF
FFF0
FFF4
0000
FFF5
0005
0003
0005
FFE3
000F
0007
FFEA
FFF2
0007
0011
FFF8
FFDF
FFFD
FFDC
FFE1
FFED
FFF7
0008
FFEC
000D
FFFC
FFF3
000F
FFDA
000F
0003
FFF4
0008
FFEC
FFF9
0009
FFF6
FFF5
FFEB
FFFE
0001
FFB5
FFEF
000B
FFFE
FFF3
FFEB
0009
FFFE
FFE8
0007
0006
FFFC
FFEE
FFF2
FFE4
0001
FFF6
FFFB
FFFE
0005
FFD6
FFE7
FFF8
FFF7
0001
0006
FFF2
FFEA
FFF9
0019
0007
FFE3
FFF7
FFEE
0006
FFFD
FFFA
000E
0007
0000
0008
FFFA
FFEF
FFF8
0006
0002
FFEC
0005
FFEC
FFF1
FFF0
0008
FFF2
FFF2
0012
FFF5
FFFF
FFEC
000C
0003
0000
0004
FFDF
000B
FFE7
FFFF
FFF4
FFED
FFF8
FFFE
FFEF
0013
FFED
000B
FFEF
FFFA
FFE8
FFE5
000A
0003
FFF7
FFF9
0006
FFF3
FFF0
FFF7
FFE9
0003
000D
0009
FFF6
FFFD
0019
FFED
FFED
0001
FFF1
FFF4
FFFA
FFF6
0010
001A
FFEC
0020
0009
FFFC
0001
FFF6
FFE7
FFFB
FFF8
FFDB
FFF6
FFEB
FFEE
FFEC
001B
FFFD
0011
0009
0003
FFE8
FFF0
FFF8
FFFE
000D
FFD4
0001
FFE1
FFE9
FFD8
FFE0
FFE4
FFFC
FFED
0007
FFDF
0000
000A
FFFB
FFE8
FFED
FFE5
FFEE
0008
FFF8
FFF7
0006
FFEA
FFF9
FFE5
0025
0004
FFFB
FFC5
FFE5
0016
FFFF
0001
FFFA
FFEA
FFEF
FFFC
0012
001B
0009
000C
FFFF
FFF5
FFFE
FFDE
FFD7
FFFF
FFF6
FFEC
FFB9
0008
0009
FFEE
FFEA
0019
FFFD
0001
FFFA
FFFB
FFED
FFE2
FFFB
FFEC
FFF2
FFD3
FFEB
FFEB
FFEA
FFC2
FFFA
0000
FFF1
FFDB
0008
FFE0
FFF5
FFF8
FFF7
FFE6
FFE6
FFF0
0011
FFFE
FFEE
FFFD
FFE2
000F
FFFF
FFF3
FFFE
FFEF
FFE4
FFE9
FFE7
0000
FFFA
FFF6
FFF3
FFEC
FFEF
FFE9
FFEF
FFFE
0008
FFFD
001B
FFE7
FFE7
FFEC
FFDE
FFF4
0000
FFF6
FFAE
FFEC
FFE6
0001
0000
0017
0005
FFF9
FFF8
FFE6
0009
FFE6
FFF7
FFE4
FFE6
FFDA
FFF9
FFFD
0005
FFA9
000C
FFF1
FFEF
FFF3
0007
FFF9
000F
FFFC
FFFC
FFF2
FFE5
0000
0008
0008
FFD9
0008
FFF4
0007
FFF9
FFEF
0015
FFFA
FFEB
0002
FFEA
FFE1
000B
FFF6
FFEF
FFE4
0011
FFFC
0005
FFEB
0003
FFF9
0001
FFF7
0002
FFE8
FFEB
FFF8
FFE4
0000
FFCA
FFF0
FFE6
0001
FFDD
002C
000F
0004
000D
FFEB
FFFC
0002
FFF3
FFF6
FFE7
FFEF
0000
0029
0005
FF8D
0019
FFE9
FFFA
FFF3
FFF9
FFFA
FFF3
000E
FFFA
FFF4
0000
FFF4
0006
0026
FFFA
0006
000B
0010
FFF4
FFEE
000D
000A
FFE9
FFF9
FFFE
0006
001C
0002
0000
FFF0
FFF6
FFF9
FFF5
FFAE
0015
FFE8
0007
0001
FFE7
FFE6
FFE8
0003
0005
0001
FFFB
FFEA
000B
000B
FFFF
002E
FFED
FFDD
FFE9
FFF8
0006
0004
FFE6
0001
FFEE
0019
FFF8
001B
FFF8
FFA1
0021
FFE8
FFEC
FFDF
0004
0008
0000
FFED
0000
FFEA
FFFD
FFEB
FFF0
002B
FFEF
FFFF
0016
0008
FFFE
FFFF
FFF9
FFFD
000B
0009
FFED
000A
0017
000D
FFF5
FFEE
0007
FFF1
FFF5
FFB2
0012
FFE9
FFFD
0000
0008
FFF4
FFEB
FFEE
000B
FFF2
FFEB
FFFF
0009
FFF6
FFF4
0033
FFFE
FFF3
FFEB
FFF8
0000
000E
FFFC
FFF8
FFF1
FFFE
FFF8
FFF8
FFF2
FF9D
FFFC
FFEE
000A
0003
FFE2
FFEC
0006
0012
FFF2
0004
FFFB
FFF7
FFFF
000E
FFEE
000E
0024
FFF6
FFFA
000E
FFEA
0009
0008
FFF6
FFED
0015
FFFC
FFED
FFEB
0003
FFFC
FFFD
FFF0
FFDD
FFE4
FFF1
0018
FFF4
000D
000A
FFE0
FFF5
0002
0008
FFFB
0006
FFF7
000B
FFFF
001C
FFEE
0000
FFF6
FFF3
FFFB
0004
FFF2
0003
000A
FFE2
0000
FFE2
0004
FFA8
FFF8
FFFE
FFF6
FFFB
FFF8
FFF1
FFFE
0008
FFF4
FFDF
000D
0007
FFF4
0005
FFF3
FFF7
000F
FFE1
0009
0000
FFF7
0012
FFEE
0018
0005
FFEF
0012
0000
0001
FFF2
FFF9
FFEE
FFF0
FFE0
FFF5
FFF0
0026
0009
0000
FFFC
FFF7
FFFE
FFF9
0000
001F
000D
FFF8
FFED
FFF7
0028
FFEF
FFF7
FFF8
FFF5
0009
0000
FFFB
0009
FFEF
FFEE
FFEA
FFF1
FFED
FFBE
0000
FFF7
FFF0
0003
FFF3
FFFB
0003
000D
FFF3
FFE3
0017
0000
0001
0012
0004
FFF3
0004
FFE1
FFE7
FFFB
FFF3
FFEE
0009
0002
FFED
FFFF
0013
0006
0000
FFF0
000F
FFF5
000D
FFF0
FFF8
000A
FFF7
FFFA
FFF4
FFF3
FFDA
FFFF
0000
FFF1
0005
FFF0
0010
000D
000A
0017
FFF1
FFFC
0000
0008
FFF8
FFEE
FFE0
000D
0000
FFE7
0003
FFEF
FFFA
FFCA
0007
0018
0013
FFFE
FFE9
0013
FFF3
000B
FFF4
0000
0033
000B
000B
0003
FFFC
0023
FFFD
FFF0
000B
0001
FFE1
FFF6
FFE5
0010
0009
001A
0003
0010
FFF4
0003
FFF8
FFE6
FFF7
0001
FFF3
0009
0010
FFFA
0006
FFF0
FFE8
FFF2
000B
000A
FFF0
000C
0003
000D
0003
0021
FFE7
000C
000F
FFE2
FFE8
0001
FFF9
FFF9
FFF4
FFF9
FFF8
FFF9
FFEC
FFBE
0006
FFFC
FFF3
FFF8
FFE2
FFF2
FFF1
FFEF
FFFA
FFEA
0025
000A
FFEC
0025
FFF3
001E
0006
0010
0000
0009
FFFD
000A
0003
FFED
FFF8
001C
FFF8
0018
FFF5
FFF1
FFF6
FFF3
000C
0002
FFFB
000F
0026
000C
FFFB
000E
000C
FFFE
0004
000E
FFE1
FFF7
FFFB
FFF7
FFF1
001B
FFF4
0005
FFF9
0003
000B
0005
FFDD
000E
FFED
FFF0
0004
000D
000B
FFC5
FFFB
0012
FFFE
0005
FFFE
FFF8
FFDD
0004
FFF7
0011
0006
0005
000B
000B
FFF6
0020
FFE4
FFE8
FFE2
FFF1
FFEF
FFE9
FFF9
FFFE
000F
0001
000B
002F
000E
FFEF
FFF0
0006
FFEF
FFF6
FFEC
FFEE
FFEF
FFEB
FFEE
FFFD
0018
0000
0019
FFFC
FFD9
000D
FFEF
0007
FFF6
001D
000C
FFE9
FFF3
0003
0005
FFDE
FFCB
001D
FFEC
FFEC
000B
0002
FFF3
FFEE
0039
000B
0001
000B
FFFA
000E
0005
FFF7
0001
FFE5
0017
0004
FFF6
000A
0014
004C
FFE2
FFEF
001A
FFF4
000D
FFFD
0000
FFFD
0009
FFFF
FFF9
0046
0003
FFF1
0000
0009
0008
0004
FFE0
FFFD
FFCC
000D
FFF8
000C
0006
FFF7
001C
FFEE
FFC5
FFFE
FFF0
FFFC
FFF5
001D
0007
FFFD
FFF2
FFF6
001D
FFFC
FFC3
0029
0002
FFFD
0010
FFE3
FFFD
FFF7
001F
0003
0008
FFF1
FFF3
FFFD
FFFF
000A
0007
000F
FFF6
0009
FFF5
FFE9
FFF1
0027
FFDA
FFFC
FFE8
FFF1
0005
000B
FFFB
FFE1
000C
0006
FFE7
000F
0001
0009
000D
000C
FFFB
0009
FFE2
0002
FFF7
0011
FFE9
0016
0011
0000
001E
FFF9
FFF9
000D
0001
0009
FFFD
FFF4
FFF8
0000
0010
FFFC
FFFA
0025
FFC5
0033
0006
0005
FFF2
FFF6
0005
001C
0000
0007
0000
FFFB
0000
FFFB
000D
0007
FFF4
FFF1
FFF9
FFF9
0012
0001
FFC6
0000
FFF3
FFF9
FFFC
0005
0019
000D
0003
FFFF
FFF2
0003
FFFD
0011
0011
0003
000D
0000
FFF5
FFFB
0010
FFFC
0006
0008
FFF2
000E
FFF2
0015
0014
FFFF
FFF2
FFF5
0000
000E
FFF2
0001
0007
0008
0007
FFFB
FFF8
000F
FFF9
FFD2
000D
000D
FFF0
0016
000C
0000
0021
FFF4
FFFC
0001
FFF2
FFF9
002F
FFFA
0007
FFF3
FFF9
FFEF
FFEC
0007
FFC2
0017
FFEC
FFEB
FFF9
0010
0011
000E
FFEE
FFEE
000B
0002
002B
FFF0
FFF5
0006
0008
0010
0014
FFED
0014
FFFD
0004
0008
FFF5
0012
FFF3
000A
0000
0008
000F
0001
000D
000A
0002
0012
FFF0
FFF2
FFFA
000D
0002
0004
FFED
0002
FFFF
FFFC
0010
FFF5
0000
000B
000D
FFF3
0000
FFFC
FFFC
000C
0016
FFF0
0010
FFFC
FFFC
FFEC
000D
FFF6
0007
FFF9
0012
FFFA
FFFE
FFEE
FFF0
FFF1
FFF1
000F
FFF1
0008
002C
0007
FFFF
0004
0004
FFE7
0009
FFF5
001F
0015
FFEF
000E
000A
FFFD
FFFB
FFFA
FFF0
FFFC
0012
0010
FFFB
FFE9
0024
0015
FFF1
0009
000D
000B
000C
FFFE
FFF3
FFF1
0013
FFF7
FFEE
000D
000A
0002
0010
FFEF
0015
FFF3
FFFE
FFEE
000E
FFFD
FFFD
FFF0
FFEB
FFF6
0014
0000
FFCF
0012
0000
FFF5
000A
FFFE
0003
0009
0000
FFF0
FFF9
FFF6
0003
000B
FFEE
0010
FFF2
000D
FFEB
0009
0007
000E
000E
0009
FFF7
FFEC
FFF1
FFF2
000D
0003
0003
0009
0015
001C
0009
0015
FFEA
0001
0005
0004
FFFC
0017
000C
FFE8
0009
FFFC
FFF5
0030
0019
000F
FFFD
FFFF
FFF5
FFF4
FFF8
FFED
0002
0006
0000
000B
0000
0014
0003
000A
FFDF
0001
FFF8
000F
004A
FFFB
0006
0012
0001
0020
000F
0000
000A
000A
FFE4
FFF1
FFF4
0000
000C
FFEA
0008
FFF9
FFF0
FFF0
FFFA
FFF2
0008
FFF9
FFF2
FFFA
0009
FFFC
0008
0001
0001
0000
FFFF
FFF3
FFF8
0006
FFF6
FFFD
FFD3
0023
FFFD
0010
000C
001B
0007
FFBF
FFF6
000C
0012
FFE9
0008
0001
000D
FFF6
FFEC
0000
FFF2
0011
FFF1
FFF0
FFEC
FFFD
FFFA
000E
0017
FFFF
FFF5
FFFC
FFF5
000C
FFF2
0010
FFFF
FFFD
FFF3
FFF6
000A
0017
FFE8
FFFB
0029
FFF8
FFF4
FFFB
0002
FFF3
000E
0013
000A
FFF1
0022
0001
FFED
0013
FFFE
0013
FFF1
FFFC
FFF1
FFFC
FFFE
FFFE
0003
000D
0016
FFE3
FFF4
000F
0005
0014
FFFE
FFED
0010
0006
FFEC
0002
FFE9
0001
FFFD
FFFC
0023
0009
FFFD
FFED
FFF5
FFEE
FFE9
FFF9
000D
0002
0006
FFEE
FFF4
FFFD
0010
FFFC
FFFF
FFF0
FFED
FFF5
0002
FFF3
0004
FFE0
0039
0000
FFF9
0003
0012
000C
000A
0000
000C
000C
001D
FFF1
0005
0012
FFEA
FFF7
FFF2
0002
0002
FFFC
000D
0027
0013
FFF9
000D
FFEE
FFF4
FFF7
FFF2
FFEB
FFE5
FFF7
FFE4
FFF5
0016
FFFF
0000
000D
000F
000C
000D
0006
FFFA
FFDD
FFCA
FFE3
FFFA
000F
0005
FFEE
FFF2
FFF2
FFF6
FFEF
000A
FFE4
0013
FFE3
0007
0010
FFFE
FFFA
0000
FFE5
0008
0007
FFFC
FFEC
FFE9
000F
FFF7
FFFD
FFE9
FFF8
FFF3
0004
0001
FFFF
FFF2
FFF3
FFF2
FFE7
FFE1
0000
000B
001F
FFFA
0016
FFF2
FFF9
0004
000B
000F
0001
FFED
0005
FFF4
FFEA
0019
FFF5
000D
FFF3
0013
FFEB
0010
000A
0002
FFF0
FFE0
0018
FFF8
FFEB
FFF9
FFF0
0000
0010
FFFF
FFEE
0006
FFF3
0006
FFE9
FFF1
FFF5
FFF1
FFE0
FFEF
FFF2
000F
FFF8
0013
0004
FFE8
0001
0006
FFE7
FFE8
FFDE
0013
FFF5
000B
0000
000E
001C
FFE9
FFE7
FFF8
FFFC
0006
0003
FFEE
0005
FFFC
FFDB
0003
FFCF
FFF0
0008
FFD6
0000
FFF1
FFEE
FFF4
FFF1
FFFA
FFF1
0002
FFE7
0005
FFEA
0005
0016
FFF7
0010
FFFC
FFF7
FFED
0008
0000
0000
0004
0010
0008
FFE1
000E
FFCB
FFE3
0007
0000
FFF5
0010
FFF2
FFE7
FFF3
0010
0005
FFFE
0003
0005
0002
FFF2
FFE6
0000
FFF0
0004
0003
FFF4
0023
FFF2
FFE1
0006
0009
FFE8
0011
FFF8
0009
0007
0012
0000
FFC8
0006
000D
FFEA
FFF7
FFE5
0006
0000
FFF9
0004
FFE9
0004
FFFE
FFFA
FFFE
000A
002B
FFF7
0000
FFF6
0003
FFCF
0013
FFEA
0007
0001
0004
0002
FFFC
0023
FFEC
FFE8
FFF1
FFF6
FFEF
0007
FFEC
0019
0009
FFF9
FFFD
FFE2
FFFC
FFE0
0002
FFF9
FFE5
FFE5
FFEF
FFEB
FFF1
FFE8
FFFD
FFF8
FFFB
FFFA
FFF1
FFF8
0001
FFF2
000D
000E
0000
FFED
FFD9
FFFE
0014
FFE8
FFE1
FFFB
FFFE
000F
0005
0017
000D
0010
0014
0009
000C
FFEA
FFFA
FFFA
000F
0003
FFEA
FFE1
FFED
FFE6
0009
FFF1
0000
0002
FFEA
0024
FFF7
FFE4
FFF0
FFF6
0002
0000
0007
000E
0007
FFFB
FFFF
FFEC
000F
FFEA
FFEC
FFF8
0008
FFF9
0002
0005
0004
FFEB
0013
FFF9
FFED
FFFB
0003
FFEE
0006
FFF5
FFFE
000D
FFF7
FFEB
FFE3
FFE9
FFFE
000E
FFFE
0004
FFFF
FFF2
0000
0003
FFEF
0000
FFF4
FFF2
0008
FFF2
FFE4
FFFD
FFFE
FFF2
FFED
FFE0
FFF8
FFDC
FFE6
0004
000E
FFF4
FFDC
0020
FFF3
0004
000B
FFEC
000A
FFFF
FFF5
FFF1
FFF7
FFE6
0006
000C
0002
FFF6
000D
FFE9
0004
000B
0000
0009
0010
0004
000A
FFEE
FFFF
FFEB
FFFB
FFF8
FFFB
FFE8
000B
FFFA
FFD5
FFF5
FFDB
FFFD
000A
FFF8
FFE9
0004
FFDC
FFF1
000F
0000
0005
000D
000D
FFDD
FFFE
FFEA
FFED
FFF7
FFF8
FFFE
FFFF
FFE2
0002
0001
FFFA
FFEE
0009
FFF4
FFDD
001F
0008
FFEB
FFF0
0004
FFF6
000C
FFEE
FFFF
FFEE
001D
FFFD
0000
0003
FFEC
0001
FFEB
FFF5
FFE4
FFF2
FFF4
0000
FFFF
FFFD
0000
FFFD
0001
FFE8
FFEE
0003
FFF2
FFFF
FFFF
FFDC
FFF7
FFEB
000D
000E
FFF8
0008
0009
FFEF
FFF4
FFF4
0015
000B
FFF4
FFFC
FFE6
0000
0000
FFED
0001
FFE6
FFFF
FFEF
0004
0007
0013
FFE6
FFF4
FFC4
FFEB
FFE7
0012
FFF2
000A
0008
FFFF
0009
FFFC
0028
FFF7
FFF5
FFF6
0008
FFF2
FFE2
FFE7
FFFA
FFE1
000A
FFE1
FFEA
FFF8
0002
000F
0000
0007
0014
FFFB
FFF4
FFFF
FFE4
FFE1
FFDA
0007
0000
FFEE
FFC6
FFFE
FFEB
000F
FFE7
FFFC
FFF5
FFFB
FFFE
FFE8
FFF6
FFF3
FFFB
FFDF
0005
FFF0
FFE0
000C
0002
FFEA
0000
FFE7
FFF4
0020
FFF9
FFF5
FFB3
FFF1
FFCD
FFF3
0021
FFFC
FFF5
FFEB
FFE7
FFF8
0018
FFF6
FFE6
0024
FFFA
000B
FFF6
FFED
000B
FFE3
000C
FFD9
0010
FFF9
FFFC
000E
FFEE
FFEB
0014
FFED
0000
FFF0
FFCC
FFE0
FFF1
FFE3
0007
FFF9
0002
0010
FFE6
0010
0000
FFFE
FFE7
FFFA
FFFA
FFEC
000B
0000
0003
FFF2
FFF0
000A
FFFA
FFE6
FFF9
FFD9
0004
FFEF
FFF2
0000
0005
0001
0003
FFFB
FFD5
FFF3
001D
FFDA
0003
FFF3
0000
000B
0025
0020
FFE8
001C
FFFF
FFF5
FFF2
FFFC
FFE8
FFF0
FFF7
FFD1
0007
000C
FFF0
FFEE
FFF9
0006
FFF4
FFE5
FFFF
FFFC
FFDF
FFE5
FFD2
FFE6
FFE8
FFF1
0023
FFF5
FFC5
FFFF
FFE8
0000
FFEE
FFF2
0000
FFE8
0003
FFE9
FFFE
FFED
FFFF
0002
FFF2
FFF6
FFEC
FFEA
000C
FFFD
0005
000A
FFE5
FFE8
0013
FFE8
FFE9
FFF3
001D
FFE2
FFEE
0004
0004
0002
FFF0
000B
0010
0017
FFFE
FFF2
FFE8
FFF5
0000
FFE0
0010
000F
000E
FFF0
FFF6
FFFD
FFE4
0006
FFF0
0009
FFF6
FFFB
FFFF
0007
FFF7
FFEC
002A
FFF6
0032
0006
FFCA
001E
FFEA
FFEA
0012
FFDD
0006
FFF5
FFF4
FFEC
FFFF
FFE5
000B
000A
000C
FFE2
FFEC
FFEE
000F
0002
FFF1
FFF9
FFFF
0004
0007
FFE6
000F
0009
0013
0005
0003
0008
FFEC
0006
FFFA
0001
000D
FFF4
FFFB
FFE4
FFFB
0000
FFF6
FFFD
0001
0013
FFEB
FFFF
FFF3
FFF7
FFE8
FFED
FFED
FFFC
FFF8
FFF7
FFFA
FFFD
FFF9
FFF1
001C
000C
0013
FFF8
FF97
0012
FFF5
000D
FFF6
FFF1
FFEC
FFEF
0003
FFEB
0001
FFD8
0007
0000
0005
FFEE
FFE8
001C
FFF0
FFF8
0007
FFF6
0007
FFF1
0012
FFFA
FFFD
FFEE
0029
FFF6
0008
0007
0001
0000
FFB8
000B
FFEB
FFF4
FFF2
000B
FFFB
0000
FFF4
FFF9
FFFF
0010
0005
FFF3
0011
FFF8
FFF1
FFF2
000E
FFFD
FFEF
FFF2
0001
FFFA
0000
FFE8
0005
000D
0011
0003
FF73
0007
FFFE
0003
FFFA
FFE9
0001
FFFE
0007
0009
FFDF
FFF3
FFEE
FFFA
000A
FFEF
FFF4
0012
FFF1
FFF1
FFE8
0011
FFF0
FFFB
FFFC
FFF8
0007
0009
0026
FFF1
0003
FFEA
FFFC
FFEB
FFE1
0002
FFE6
FFFC
FFF0
FFF3
FFF1
0013
FFFB
FFEB
FFEA
FFF9
FFF0
FFF3
FFF0
FFFB
0002
0011
FFFC
FFFC
FFF3
FFEC
FFF2
FFF1
FFFE
FFDC
0002
FFEE
0003
FFFB
FF38
0004
FFE2
FFF5
FFE9
FFDB
0001
FFED
FFF1
FFF9
FFF6
FFFE
FFE7
FFF6
000F
FFEF
0000
FFEF
FFFC
0002
000A
FFDF
0013
FFE6
FFF3
FFEA
0002
001D
0028
000C
FFF9
FFF9
0000
FFFB
FFD6
0009
FFF1
001D
0003
0016
000A
FFF7
FFEE
FFF9
FFE4
FFF5
FFF3
0010
000C
0000
0000
0011
000C
0006
000F
0000
FFF0
FFEA
000E
FFF6
0002
0009
FFFE
FFEF
FF6B
FFFE
0005
FFEF
FFE0
FFF1
000B
0007
0005
FFFA
0008
FFE6
FFFA
FFFD
0004
FFF0
FFF3
0008
FFE3
FFEB
000D
0003
FFFD
0000
FFFD
0009
0001
0008
0027
0011
FFEA
FFF4
FFFC
000C
FFE4
FFEC
0010
001D
FFEE
000E
FFE8
000D
0007
0000
0007
FFF3
FFEF
FFF2
FFF0
FFF8
0006
FFF2
000E
FFF7
FFF2
FFE6
0003
FFFB
FFFE
0003
FFEB
0012
FFF7
000C
FF9E
0008
FFEC
FFEB
FFFD
FFDB
FFF6
FFF6
FFFA
FFFF
0000
0022
0005
FFF5
FFF8
FFF9
0002
FFF9
FFFC
0017
000E
0014
0002
FFEF
FFE9
0014
FFFB
0001
0022
FFF3
0000
FFFB
0008
0003
000C
FFF2
FFFF
0029
0002
FFFA
FFEC
000F
FFEF
FFED
FFEA
000F
000B
0013
0003
FFFE
0003
000C
FFF7
FFEB
FFF4
FFE8
FFFC
FFE5
0002
0004
000B
FFFB
FFF6
FFFD
FF78
001D
0001
0008
FFF0
FFF0
0004
FFE9
FFEE
FFEE
FFED
0013
FFF6
0009
0002
FFFB
FFED
0012
000F
FFF7
0000
0015
0009
FFF6
FFBA
0007
0000
0016
002C
FFEC
0003
FFFD
FFF8
0008
FFE7
FFD3
0012
0021
0008
FFDF
FFF0
0035
FFF1
FFF8
FFF4
0013
FFFD
FFFC
0006
FFFD
0008
FFF7
FFF7
FFFE
000C
FFF5
0010
000A
001F
FFF8
FFE8
FFFB
FFF2
0005
FF9C
0012
000E
0000
FFE8
FFEF
FFF6
0003
000F
0001
000C
0019
0008
0001
FFE9
FFF5
FFF3
FFFF
FFF2
0014
000D
FFF2
000A
0002
FFEC
001A
FFE7
FFF1
0049
0006
FFF8
0007
FFF8
0003
FFE6
FFC3
FFF6
0017
FFF7
FFF2
0000
0032
0004
FFED
0011
000C
0012
FFF0
000F
000F
FFF9
000B
FFF0
FFE9
FFF1
0001
FFF5
FFDB
0007
FFEF
000C
FFF3
000D
FFFD
FFA5
002B
000E
FFF9
FFF7
0000
0002
FFEB
FFFD
0016
FFEE
001E
FFF2
FFEC
FFED
FFD6
0000
FFE0
000C
FFEB
FFEE
0009
0002
FFFF
000C
FFFD
FFF9
FFFC
0051
000F
0004
FFF3
FFED
FFF7
FFFF
0018
000A
FFE7
FFFB
FFEB
0010
000D
0007
0004
0000
FFF9
0008
FFF5
FFF6
FFFD
0024
FFF9
0011
0000
FFF1
0004
0014
FFCF
0011
FFF3
FFFF
000D
0030
0007
FFE9
004C
0007
0007
FFF8
FFF8
0008
0018
FFFA
0004
0006
0003
FFFC
0008
FFF1
FFCE
0012
FFC3
0005
FFF3
000A
001B
0011
000B
FFE5
0003
000C
FFF0
0010
FFF0
FFF6
000E
0006
0014
0009
FFE5
FFF0
FFFE
0013
FFEF
0008
0006
0007
0007
000C
FFFE
0003
FFF2
000C
FFFC
0035
FFF9
FFED
FFF6
FFF0
0006
003C
FFD2
000F
FFF1
FFEF
FFF2
0011
FFDF
0019
FFF9
FFFD
FFFE
FFFC
FFED
000D
FFF7
000C
0000
0017
FFFD
0004
000D
FFF5
FFE0
0011
FFEF
0013
FFFA
0007
002C
FFFA
FFFC
0016
000F
FFF5
FFE3
FFE5
FFF8
FFF1
0000
0011
FFF9
FFF9
FFF0
FFF2
0012
000F
FFE6
FFF7
0009
0007
FFFB
0011
FFE5
FFED
000A
0007
0006
0027
0003
FFF2
FFFA
000F
FFFA
0005
FFFB
FFD2
000E
FFFA
FFEF
0014
0008
001B
FFF3
FFFB
0012
FFF0
FFF5
0000
001B
0000
0004
FFF1
0011
FFF7
FFF6
FFFC
FFC7
0003
FFF7
0015
0009
0004
FFFC
FFF4
FFF6
FFFC
FFF1
0012
0036
0012
FFFD
FFED
FFF5
000A
000A
0001
000D
0013
FFFC
0013
0014
FFF3
FFFE
0007
000A
FFF7
0013
FFF7
000D
FFF7
0005
FFEC
FFF3
0014
0000
FFEF
FFFF
0011
0005
0000
0011
FFF3
FFFE
0004
FFFE
FFF1
0001
FFF2
0004
FFEE
0009
FFF0
0018
FFFC
FFF8
FFF4
FFF0
0011
FFEC
0012
FFF2
000C
FFFC
0000
FFE8
FFF3
FFFE
FFEF
FFF7
FFF2
FFFF
0015
001B
000B
0002
FFF6
FFF1
0005
0010
FFFF
002C
0005
FFEC
0007
0010
0000
FFF7
FFF9
FFF6
000D
000B
FFFD
0006
001A
0019
0003
FFF6
FFF9
FFF0
FFEC
FFFA
FFED
FFE4
0007
0005
FFEC
0013
0020
000B
0002
FFF7
0002
0002
000F
0003
0014
FFD4
0002
000A
0006
0005
FFF7
0009
FFE0
0019
FFEC
0000
0010
FFF2
0000
0019
0016
0003
FFDE
0013
0015
0026
FFF5
0000
0002
FFF4
000D
000B
0006
FFEF
0000
000E
000D
0014
0002
000E
FFFC
FFFE
0008
FFF4
0006
0000
001B
001C
FFF4
000A
FFF2
000E
FFE9
FFF7
FFFD
FFFD
FFBD
FFF4
0004
FFFA
002B
0000
FFF2
FFF2
0000
0008
0001
FFEC
0005
0014
FFEC
0011
FFFF
000D
FFFA
FFF2
002D
0000
FFFB
FFF4
FFFD
001D
0008
000F
FFEF
0011
0016
0015
001C
0026
0009
0003
FFF1
FFF2
0005
000F
0010
001C
000F
0000
0011
0007
0004
0009
0013
FFE0
0003
FFF6
FFFB
FFFE
000B
001C
0027
FFFB
FFF8
0003
000F
FFFD
FFED
FFF3
FFEF
FFF4
0003
000C
0028
0007
FFDE
FFFF
0003
000D
000B
0004
FFF8
0007
0000
0002
FFFE
0000
000E
0003
0007
FFBE
FFEC
0007
0004
0018
FFFE
0016
FFEC
0001
FFE4
FFFB
FFF6
001C
0000
FFFB
FFEF
000A
0013
FFF5
FFDB
0013
FFF6
FFEF
FFFB
FFFB
0006
FFFB
FFFF
000E
000D
000F
0000
0002
0005
0004
000C
