FFFC
0014
0010
0007
0005
FFFE
0002
0004
FFF0
0005
FFF9
0011
0000
FFED
FFF4
FFEF
0010
0002
0009
FFEF
0006
FFED
FFEF
FFEC
FFFE
0011
FFFB
0003
FFF2
FFED
000F
FFEB
FFFD
0006
FFFA
FFF3
0011
0013
0004
000E
0002
000E
000B
FFEE
0013
000A
0013
FFF8
0014
FFEC
FFF0
FFEF
000D
0013
FFFF
000E
0006
FFFD
000A
FFFC
FFF4
0007
FFEF
0007
0008
FFEE
FFEF
0001
000B
FFEC
0004
000E
FFED
FFF5
0005
0008
0009
0005
FFF9
FFEB
FFF1
000E
000A
FFF8
0006
FFFE
0008
FFFC
FFFE
0009
FFED
0001
0000
0000
FFEF
FFF3
000C
0012
0000
FFF4
FFF0
0009
FFF0
FFF7
FFFF
000F
FFF6
0012
FFFD
FFF8
0009
000B
0001
0008
FFF4
0000
FFEB
0010
000B
FFEC
FFF4
0006
000D
FFF5
FFF6
FFEE
FFF8
0003
0001
0011
FFEE
FFEE
000F
FFF6
FFF9
FFFF
FFFB
FFFC
000E
FFFA
0003
0014
FFFE
FFEB
FFF8
0000
FFFD
0005
FFF7
FFF5
0004
0008
000E
0002
FFF4
0013
FFFA
000D
FFF3
FFEE
0002
FFF0
0002
000C
FFF9
0004
0002
FFF3
0000
FFEB
0007
0008
0010
FFF9
0012
0008
FFFB
000E
0011
000B
FFEC
0015
000F
000F
FFF7
FFF2
FFF4
000A
FFEE
0014
0005
FFEF
FFED
0000
FFEF
FFEC
FFFC
FFF6
FFF8
0000
0003
000A
0002
FFF8
0006
FFEF
FFFD
0007
0009
FFF9
0004
FFF9
000C
FFF2
000B
FFFC
000B
FFFC
FFF2
000F
000B
000A
FFF0
FFF8
0000
FFFA
0007
0004
0000
FFF0
0005
0001
0005
0000
FFF3
0004
FFF1
FFEF
FFEE
FFFF
0013
000B
0009
0005
FFF0
FFFC
FFF9
FFEC
0000
FFF5
FFF9
0000
FFFE
0001
0000
FFEF
000C
000D
0010
0005
FFED
FFF5
FFF2
FFF4
000B
FFEE
FFF6
FFEC
FFF5
0011
000C
0000
FFF4
FFFC
000D
FFF0
0007
FFEC
FFFC
0003
FFFB
FFFF
FFFA
000F
0004
000C
FFF9
FFF6
0003
FFFA
0007
FFEB
0001
0005
FFED
FFF8
0002
FFEE
0003
0008
0011
FFEF
FFEC
FFEB
FFF9
FFED
FFF5
FFF5
0008
0006
000F
0007
0005
0010
000D
FFFB
0000
FFF3
000B
FFED
0003
0005
FFF3
FFEC
FFF4
0012
0009
0005
0001
0003
000F
FFF4
0001
FFEF
0002
0000
FFED
0004
FFF6
FFEC
0014
FFF7
0011
0008
0006
FFF9
FFF1
0000
FFF3
FFFC
0012
FFF4
FFFD
FFF8
FFF2
0010
FFEB
FFF9
FFEE
0010
FFF8
0006
FFF7
FFED
FFFA
FFFF
FFFE
000B
FFF8
0012
FFFE
000E
FFF3
FFF7
FFF9
0007
0003
FFF9
FFF8
0004
000B
FFF5
0009
FFEE
FFF4
FFEE
000D
0006
FFF4
FFFA
FFFF
FFFE
000B
0011
0000
0012
FFFE
0011
FFF7
FFF4
FFF1
0012
000B
000E
FFF3
FFF8
0010
0000
FFF0
0003
FFFE
FFF2
000B
FFF2
FFF3
0010
0012
0009
0004
0000
0002
0003
0014
0001
FFF9
FFF6
0009
0007
FFF9
0010
0010
FFFF
FFF7
0010
FFEE
0003
FFEF
FFED
000E
000A
FFF9
FFF3
0014
0013
FFF4
0012
0010
FFF6
FFF3
0000
FFFF
FFF8
0002
0008
0000
000D
FFEE
0000
FFFF
0005
FFFD
0014
0011
000F
0014
0007
FFF6
FFFF
0005
000D
000E
000E
FFEC
FFEC
0010
FFFF
000C
0005
0010
0008
FFEF
FFEC
FFF6
FFF3
FFF5
FFF1
000D
0006
0005
FFF6
FFFB
FFF0
000C
FFEC
FFFE
0011
FFF5
FFFB
000F
0008
0014
FFEB
FFF8
FFEC
0000
FFF7
0004
000E
FFF7
0001
0001
0009
FFFC
0011
000F
FFFC
FFFC
FFFB
000A
FFED
000C
0002
0012
000B
0012
0001
000F
FFFC
000C
0005
FFF2
000F
FFFD
0004
FFF4
0014
FFFC
FFFC
FFF5
FFFB
000B
FFFB
0011
FFFA
FFF0
0007
0009
FFF1
000A
FFF4
0007
0007
0004
FFF8
0012
FFF9
FFEE
0010
0009
FFF1
0010
0008
FFF3
FFF5
0000
0000
FFFB
FFFB
FFF5
000E
000C
0013
0002
0009
FFFD
0007
000A
0009
0012
FFF1
000A
0011
FFF3
000A
FFFC
0002
0012
0015
FFF4
FFF8
FFEE
FFEE
FFF0
0013
0011
000C
000C
0004
FFF7
FFF3
000E
0008
0001
FFED
0000
0006
FFF1
0004
0013
FFF4
FFF9
0008
FFF6
0004
FFEB
0014
0011
FFFA
FFFE
0003
FFF0
0003
FFED
0005
0004
FFF1
000E
FFEE
000E
FFF8
0015
000A
000C
FFEF
0012
FFF8
0002
0013
0013
FFF7
FFEE
FFFD
0012
FFF6
0014
0015
FFF1
000B
0007
FFF9
FFFF
0007
000B
FFED
FFF4
FFF2
FFEE
000A
FFF1
FFEE
0004
FFF5
FFF1
FFFF
FFF4
FFF4
0000
0001
000F
FFED
FFF6
FFF7
FFF9
FFF8
FFF3
FFF0
FFF9
0004
FFEC
FFF8
FFF0
FFF9
FFEF
FFF4
0001
000C
FFEB
FFF3
FFFC
0014
FFEF
0007
FFEF
0009
FFF2
0009
0013
FFFC
FFF0
FFEF
0007
000C
FFF1
0004
FFF2
FFFE
FFF1
0009
000C
000F
FFFF
0000
FFF2
0011
0008
000D
0010
0005
0015
000D
0012
FFFD
000E
FFF4
0005
FFFB
FFF3
FFFA
FFF9
0013
0007
0014
0014
FFF2
000F
FFFC
FFF2
000A
FFEC
FFFA
FFF6
0004
0006
FFF6
0009
000A
0011
000F
FFEC
000A
0008
FFF4
0008
FFF4
000E
000F
FFFF
0007
FFF5
0002
0000
FFF7
0008
FFFF
0012
000C
0002
000C
FFF0
FFFE
000B
FFF8
FFFC
FFFD
FFFF
FFFD
0000
FFEF
FFEC
0012
000E
0014
000A
0000
FFFA
000E
0004
0011
0005
FFF5
FFEC
0014
FFEE
FFEE
FFEB
0015
0003
0013
FFF5
0005
FFEE
FFF1
000B
FFF7
001B
0005
000B
FFF3
FFF7
0010
FFFD
0011
0007
000E
FFFA
0004
0001
0009
0004
0006
0000
0007
FFF1
FFF5
FFFC
0018
000E
0000
0015
FFF1
000D
0026
FFF5
0000
FFFA
FFFC
0004
FFEF
0013
FFFD
0011
FFED
FFF7
0014
FFED
0011
000E
0001
FFED
FFF6
FFF7
FFEE
FFF4
FFF3
FFFC
0013
0002
0005
FFFC
0015
000C
FFF6
FFF6
0000
FFF7
FFED
0008
FFEE
0017
FFF9
0014
0002
0005
0003
0005
0007
FFFE
FFF1
0011
FFF2
FFFB
000B
0004
0003
FFEF
0002
FFFE
0000
0009
001B
0002
FFFA
FFEE
0012
0004
001C
FFED
000D
FFFA
FFFE
0001
FFFF
000A
FFF5
FFED
FFFB
000E
FFED
0014
0010
0010
FFED
0006
0013
0002
0013
FFF8
000B
0007
FFF3
FFFB
000E
000F
000F
FFF3
FFEE
0007
FFFC
FFF2
FFF1
FFFA
FFFB
000E
0000
FFFB
000A
FFED
0005
0000
0010
FFF3
FFF5
0015
000B
000C
0014
000A
0001
0000
FFF2
0012
FFF5
0000
000C
0012
0001
FFF0
0006
FFF8
0004
0011
FFF6
0013
FFF6
0000
FFEB
000F
0014
0003
0000
FFED
0008
FFFF
000D
0014
FFF0
0002
0008
0001
FFF0
FFFA
0004
FFF2
0006
FFF9
FFF9
FFEF
FFF0
0013
0010
000A
FFF5
FFF6
0007
FFF4
0008
FFEC
FFEC
FFEE
FFED
FFFC
FFF2
0011
0006
FFF0
FFED
0011
FFEC
FFFB
0002
FFFA
FFF9
0000
FFEB
FFF4
FFFA
0011
FFFF
0000
0000
0004
0001
FFEE
0001
FFFB
000B
000E
0014
0000
FFEC
000D
0001
FFFA
0000
FFEE
FFFD
000F
0006
FFF0
FFF4
000C
FFFF
000D
0002
FFED
FFEC
FFF4
000E
0014
FFF3
FFFC
000C
FFF9
FFED
FFF5
FFFC
0001
0002
FFFA
0009
0003
FFF5
000F
0000
FFF3
000E
FFEF
0008
0000
0002
0000
FFFB
0009
000A
0008
FFEF
000F
FFF9
0002
0010
0013
0000
FFFF
0001
FFEC
0011
FFF2
000D
000A
FFF4
FFED
FFF8
FFF1
FFFA
0002
FFFA
0001
FFF9
FFEC
0002
FFFF
0011
FFF6
FFF4
FFF6
FFFF
000A
0003
FFFA
FFFF
000E
FFFF
FFF8
0006
0013
0006
FFFB
FFEE
0004
FFF1
FFEC
FFFA
000F
000E
0002
FFEF
0007
FFF9
FFF1
0007
FFF9
000F
000C
000E
0002
FFF0
FFF2
FFF5
000B
FFF6
000A
0003
FFFA
FFF0
0011
0006
FFED
000A
FFFE
0003
0010
000B
0003
FFFC
0015
0000
0010
0009
FFFC
0000
0002
FFEE
FFF8
000E
0009
0007
0015
FFFF
FFF7
000D
0012
FFF0
FFF8
0002
0014
0011
FFF4
0003
FFFF
0000
FFFE
0014
FFF7
FFF2
FFFF
0004
FFED
0014
0015
000B
000A
FFF1
0012
0000
FFED
0013
0004
0000
0002
FFF9
0005
FFF2
FFFF
FFF7
000A
000C
FFEC
0004
FFF7
FFF0
0000
0009
0000
0015
FFF8
FFF2
FFFB
000C
FFEC
FFEE
000D
FFF4
FFF8
000D
0000
FFEF
FFF6
FFF6
FFF5
FFFB
0002
0005
0001
000D
FFF6
FFF3
0008
0004
FFF1
000F
FFF6
FFF5
0005
0005
FFEC
0008
0011
FFFE
FFF0
FFF9
FFFB
0009
0013
000F
FFEE
0012
0009
FFF4
FFF4
0000
000C
FFF3
FFF2
FFFC
000E
FFFD
0010
0000
FFF0
FFFE
FFEC
0012
0002
0009
0013
0015
0007
0009
000F
000E
FFF4
0000
FFF8
0011
FFF7
FFF8
FFEB
FFFF
000C
FFEF
FFF7
0009
0000
0010
0012
0007
FFF5
FFF7
0009
0004
0004
FFF3
FFF0
0004
0010
FFEB
0002
FFF1
FFF4
0000
0002
0008
0000
0003
FFEB
FFF4
FFF4
FFF9
000E
FFF2
FFF2
0009
000A
0002
0013
000E
FFED
FFED
FFF9
000E
0007
FFF4
FFFD
FFFB
0000
000A
000D
FFEF
FFEC
FFF0
0002
FFEC
000D
FFF9
0002
0013
0013
000F
FFFB
FFF8
0008
0004
0013
0006
FFEF
FFEE
0010
FFF9
FFF7
FFFB
FFF4
FFF2
0005
FFF3
000D
0003
0012
000B
0000
FFEC
0002
0002
FFFB
FFEE
FFFF
FFEC
0000
FFF1
0005
0004
FFF1
0006
000F
0001
000E
FFF5
0005
FFFF
FFED
0008
0014
0010
000C
FFF7
FFFF
0014
0004
000A
FFF6
FFF5
FFFE
0001
FFFC
FFF4
FFFD
000E
FFFB
FFF1
0001
FFF6
000E
000E
FFEE
FFEE
FFFD
FFEE
000D
0001
FFEB
FFF4
0010
0015
FFFA
FFF9
0000
FFFA
0015
0010
0014
0007
FFF8
0008
FFF6
0003
0005
0005
FFEF
000B
0014
0002
0000
0004
0000
FFFE
FFF2
FFEE
000C
FFF1
FFED
0007
FFFE
FFF6
0012
0010
0009
000D
FFF8
FFEC
FFF2
000F
000B
FFF9
FFF4
FFF4
FFF9
0013
0014
FFF2
0015
FFF7
000E
0011
FFEE
0002
0014
0000
FFFD
0011
FFFD
FFF9
000E
0014
FFF1
000F
0005
FFEE
FFF9
000E
0005
FFF5
000D
0007
0011
0009
FFEF
0000
FFED
000F
0005
0010
0003
FFFD
000A
FFFB
FFF7
000A
0000
0013
0012
FFEF
0013
FFF2
0003
FFFC
0003
000F
FFF7
000D
FFEF
FFFD
0006
FFF3
000B
FFF3
0011
0006
FFF5
000D
0000
FFF6
0007
0003
0008
FFEF
0004
FFF0
0014
000F
FFF3
FFEE
FFF0
FFF5
000A
0000
FFFB
0011
FFF1
FFF8
0010
000C
0001
0005
0011
FFF6
0000
FFFD
FFF6
FFFA
FFF7
0005
0000
0013
000E
FFF2
0000
0014
FFFF
0001
FFF8
0000
0011
FFFF
FFFE
FFF5
0009
FFF1
FFF4
0001
FFFA
FFF0
0007
FFFD
000A
0003
000B
0011
FFF8
FFF3
FFF9
000B
FFFA
0014
000F
FFEB
0011
FFF7
FFFF
0002
FFF9
FFFD
0006
FFF1
FFEF
FFF0
0001
000A
000F
0014
FFFF
0013
FFF0
000B
FFEC
FFFB
000C
FFF5
FFFC
0008
FFF4
FFF3
FFEC
0008
FFF7
FFEE
FFFF
0000
0013
0005
FFF9
0002
0015
000B
FFF3
FFF5
FFED
FFF9
0000
0005
0005
0004
0006
0007
000C
000F
FFEC
0006
000C
0013
FFFD
0015
0012
0007
0000
FFF1
FFF6
000A
0014
FFFA
000A
0000
FFFA
0007
FFEB
000A
0010
0014
0014
0011
0007
000C
000D
FFEF
FFEF
0004
FFED
0014
FFFA
FFFD
0012
FFF4
FFF7
000A
0006
FFEC
FFEE
FFED
0000
000B
000A
FFEF
000A
000B
FFF1
0002
000F
0002
0002
0002
0013
FFFD
FFFF
0013
0010
0004
0003
FFF9
000B
FFEC
FFEE
000C
FFFE
0009
0003
0001
FFF6
FFFA
0009
FFEC
0009
0013
0007
000A
FFF2
FFF5
FFFF
0002
0000
0000
0001
FFF2
FFF8
0011
FFED
FFF2
0001
0002
FFF4
0015
000B
0004
0012
0000
FFF5
000A
0012
FFF5
FFF1
0006
0013
0008
000C
0003
0008
0013
000F
0010
0002
0002
FFF5
0011
000A
000C
000B
FFF1
0009
FFF5
0002
000E
FFFA
FFEF
0003
000D
000B
0003
0011
FFF9
FFF9
FFF5
FFFC
0004
000D
0009
FFF5
0002
000A
FFFC
FFEB
0004
FFF4
FFEF
0006
0010
FFED
0000
0007
FFEE
0013
FFFA
FFF2
0004
0010
000A
FFF0
0000
0004
FFF5
0011
0014
0006
0003
000F
0009
0009
000D
0005
FFF2
FFFC
0005
0002
FFF8
0003
FFF2
0003
0010
0002
FFF2
000E
000A
FFED
0004
000A
000F
0009
000B
0014
0010
FFFD
000D
FFFA
000E
FFF3
FFEF
000A
0012
FFED
FFFB
FFF0
FFF7
FFF9
FFFC
FFFD
FFEF
000D
0001
0009
FFEB
FFF7
FFEC
FFEF
0005
0015
FFF1
0014
0011
FFF7
0007
FFFC
0004
FFF6
0007
FFFF
FFED
0012
FFEC
0006
0012
0015
0014
0004
FFFE
0003
0009
FFFC
FFF4
0006
000F
FFF0
0014
0009
FFFC
0003
0014
0001
0010
FFEF
FFF1
FFF7
FFFA
FFF3
FFF2
0000
000A
000F
0004
000C
FFF9
FFF0
FFF6
FFFD
0002
FFFC
000C
FFF8
FFF2
FFEE
FFEE
FFFF
000A
0013
FFFA
0001
0011
FFEB
FFEF
0007
FFEF
FFF4
FFF3
0006
FFF4
0001
000A
0005
FFEB
FFEC
0003
FFF1
FFF9
000F
FFEE
000F
000A
0010
0007
0006
0001
FFED
000A
0002
0006
FFF5
0005
FFF6
FFFD
FFF7
0007
FFED
FFFE
FFFA
0000
0015
000C
FFF3
0013
0002
0001
0008
FFEE
000C
0007
FFF4
0006
FFFF
0013
0012
FFF4
0006
0013
0010
0012
FFEB
FFF5
0002
FFED
FFF7
0009
FFEC
0013
FFF0
FFEF
0005
FFED
0007
0010
000C
FFFC
000B
0000
000B
FFFA
0000
0001
0009
FFF1
0009
000B
0011
0009
FFEF
FFF3
FFF0
0011
0006
0014
FFF2
FFF8
FFEC
FFFE
FFFD
0015
FFF6
FFF5
FFFD
0003
0014
FFF1
FFFA
FFF2
FFEC
FFFF
FFF1
FFFB
FFEE
0000
FFF1
0010
0012
FFF2
FFFD
000A
0000
FFEB
0010
FFFC
000D
0010
FFF5
0000
0006
0014
FFF0
0009
FFEE
FFF3
0001
FFFC
0003
FFFE
0002
FFFF
FFF2
FFEE
0002
FFEF
FFF2
000A
0011
FFEF
0006
0009
FFEE
FFEB
FFF0
FFF6
0013
0007
0001
FFFE
FFFF
0005
FFF1
0000
FFF4
FFF9
0006
FFEE
FFFA
FFEB
0004
FFF9
FFF7
0012
FFFE
0006
0009
000C
FFF5
FFF0
FFF2
FFEF
0005
0014
FFEC
0004
FFED
000D
FFF1
FFF8
000E
FFED
0013
0015
000B
FFF8
FFEF
FFF2
FFFE
FFF5
000D
000D
FFEC
FFFE
FFFA
0005
FFF3
000E
0005
000D
000A
0011
FFF9
0012
000C
FFFD
0009
FFFE
FFF0
FFFD
0003
001D
FFFE
FFFC
FFF3
FFF6
FFF6
0013
0010
FFF2
FFF9
FFF0
FFEB
FFEE
FFEC
FFFA
000F
FFFF
0009
FFF3
000A
FFF3
FFF2
000A
FFFA
0002
0002
0000
0010
0011
FFF2
0002
FFFA
FFF7
FFFC
FFED
0006
FFF4
000C
FFFD
0000
FFFC
FFEC
0001
FFEF
FFFB
FFF6
FFF1
000F
0001
0004
0002
001F
0006
FFF4
0012
0013
FFEF
000E
0009
0005
0008
0014
0010
FFF7
0019
000A
FFFC
FFF6
FFF6
FFFC
0013
0011
0010
0022
FFF3
FFFE
FFF3
000C
FFF7
000D
000A
FFFD
FFFD
0014
0012
0000
FFEC
FFF0
FFFC
0008
FFD8
FFF0
0000
FFFC
0011
000E
FFF6
0001
000A
FFF6
0003
0000
FFEE
FFF2
FFFD
0010
FFED
0008
0016
000D
000C
FFFC
FFF1
000E
000B
0015
000F
FFE3
0000
FFF3
0014
000E
0005
000D
0009
0004
FFFF
FFF9
0031
0005
0000
000B
0009
FFF7
0006
FFFB
000D
0019
0003
0008
FFF9
000F
FFF4
000B
0011
0012
FFF6
FFDF
0001
000D
FFFE
0000
0000
000E
FFE2
0003
FFF5
FFF9
FFF5
FFFB
0007
0000
0000
FFFD
001F
FFF6
000E
0010
FFF3
FFED
FFF0
0001
FFF0
000A
FFFB
FFF5
FFEE
FFEF
0003
FFF2
0013
0005
000A
0011
FFFF
0002
FFFC
0013
0009
FFFE
FFF6
0005
000B
0008
000C
FFFB
FFEE
0007
000E
0011
000F
0023
000E
0002
FFFC
0012
000D
FFFC
FFF9
FFF8
FFF6
FFED
000C
0000
FFEC
FFF1
0014
FFF3
FFF5
0008
0012
FFF6
FFFE
FFEF
FFEC
FFF7
0000
FFEF
0034
FFF3
0011
FFF7
FFF2
0001
000D
0009
000E
000C
FFF9
0002
FFFE
0010
000A
FFF8
FFFB
FFFE
FFF7
0001
FFFF
0003
0001
000C
FFF3
0010
0011
000B
001E
0003
FFF5
0008
0003
FFEF
FFFC
FFF9
0000
0015
FFF3
0000
0014
0013
000C
FFFA
0015
0013
FFEC
FFF9
FFE9
0007
000E
FFF5
0009
0003
FFE7
0004
FFFE
0006
0009
000F
FFEE
0014
FFF5
0004
0003
000B
FFFE
0006
000A
000D
FFF2
FFEC
FFEF
0005
000E
0002
FFEE
FFF0
FFFC
FFE3
0013
0012
0009
FFFE
0011
FFF4
FFFE
0001
000F
0007
FFF0
0016
0043
FFF1
FFF7
0013
FFF2
0008
FFF3
FFFC
FFEF
000F
0007
0003
FFF4
FFFF
FFF6
0009
000B
FFF0
FFF1
0003
0002
0013
0003
FFE5
FFFE
FFEE
0002
000F
0016
0013
FFFC
FFFB
0011
FFFF
000E
0013
0019
0011
0000
000D
0007
0000
0009
FFF6
0018
FFF9
FFF1
FFF7
FFFA
FFEE
FFF5
FFE1
FFEC
FFEE
0011
FFED
0000
0000
0004
0002
FFF5
0008
FFF6
000E
0016
0007
0009
0004
FFF5
FFF3
FFF0
000F
000F
0015
0006
FFE8
0000
000C
FFF6
0010
000A
FFFC
FFF6
FFED
FFED
0014
FFFE
FFE4
0008
FFFE
FFED
0002
FFFD
0008
000D
0005
0005
0010
FFFE
0017
0017
0002
FFF1
FFEC
000C
0007
0012
0002
FFF7
FFEE
FFF0
FFEA
000F
FFFE
FFFB
000C
0005
FFE7
0002
000F
000F
FFED
0001
0004
0005
0003
0010
000C
0001
FFF0
FFFF
0010
FFFD
000A
0015
0008
0000
002B
0003
0000
FFF7
FFFF
0002
0002
FFF2
FFF7
000F
FFF2
FFEB
000B
FFFB
FFEC
FFF2
FFF5
FFC8
FFF9
001E
FFFA
000F
000D
FFF6
FFEF
0014
FFFC
0013
FFFA
000D
0007
000A
FFF3
FFF9
FFED
FFFF
FFF8
000A
0006
FFF7
000A
000E
FFCB
FFF3
FFFA
FFFE
FFF0
FFFB
FFF4
000C
0003
0000
FFFC
FFF1
0000
000F
0007
0012
0000
000C
0000
0005
FFF2
0012
0035
FFFA
0007
FFF7
0001
FFFB
FFFB
FFED
000C
FFF1
FFEE
000C
0005
FFEF
FFE6
FFEF
FFEE
FFC8
0003
000C
0005
FFF7
0013
0002
0000
FFF2
FFFB
0024
0004
000C
0000
0001
FFFB
0010
FFF9
FFEE
FFFF
0005
0008
FFF4
FFFD
FFED
0000
FFF7
FFFE
FFFA
0007
0010
0006
0006
000E
FFFA
0016
0004
0006
FFE1
FFED
0006
0000
FFF3
0011
000B
000B
FFF6
0038
0006
FFEB
FFF9
FFF9
FFF2
0001
FFF5
FFF9
FFFA
0023
0010
0003
0002
0004
FFFE
0005
FFD8
FFED
FFF2
FFF3
0000
FFFB
0015
000C
0010
000A
002F
000F
0004
0001
FFFF
0008
FFEB
0018
0005
FFF0
FFF8
FFEB
FFFF
0002
0008
FFFF
0013
FFD1
0013
FFEF
0001
0008
0012
FFE5
0014
FFF3
0010
000A
FFF8
FFFC
FFF7
000F
FFFF
FFF1
0006
FFFA
FFF9
0033
0001
FFE4
FFFE
FFEC
000F
FFF3
000A
0014
0002
0027
FFF5
FFEF
FFED
FFDE
000A
0002
FFE6
FFEE
FFF4
0012
FFF5
FFF4
FFFB
0001
0004
FFF4
002B
FFF1
0003
FFE9
FFF1
FFFB
FFFE
0022
FFFE
000F
000D
FFF6
0018
0006
FFFF
0014
000E
FFBB
0011
000C
000E
0009
0011
FFF4
FFF9
FFF8
0011
0011
FFFF
FFF1
FFEC
000E
FFEA
000A
FFF1
0015
FFF1
0012
FFF2
FFE7
FFF3
FFFB
0010
FFFE
0008
0007
FFE3
0021
0000
FFFA
FFFE
FFCE
FFF5
0008
FFF2
0010
0001
FFFD
0007
FFE4
0003
0001
0014
FFFB
0012
FFF6
0008
000D
FFEB
0013
000A
0010
FFFB
FFF4
FFF4
0002
0001
FFFB
0004
0005
FFFB
FFD8
0000
000A
0004
0013
000E
FFEC
FFFF
FFFD
FFFD
0003
0027
FFFB
FFED
0002
0005
000C
000E
FFF6
0003
0025
0006
0008
0003
FFED
FFEF
0014
FFFA
0001
FFF0
000B
0007
FFFE
FFEE
FFE0
0011
FFF5
0012
FFEF
0013
FFFF
0036
FFED
FFF5
FFF5
FFF7
0015
0006
FFEE
0011
FFFB
FFFC
FFF8
FFEC
FFF9
0014
0004
FFFB
000E
FFF0
0001
0011
FFEF
FFEB
FFE7
0008
0008
FFEF
0011
FFED
FFFD
FFED
FFF5
0005
000E
003A
000E
FFF8
FFF3
FFEF
0000
FFFE
0011
FFF4
003A
FFF0
FFF8
000F
FFFA
FFF8
0000
000D
000A
FFF5
0002
0003
000D
0011
000A
0014
000F
FFFD
FFF7
FFEA
FFF6
0023
000F
0015
0008
FFF8
FFFF
0022
FFFC
0010
FFFA
000F
0006
0005
FFF9
000A
000C
0013
FFF7
000B
0009
0002
FFEF
000E
FFEC
FFF5
0007
000F
000A
FFF6
0003
FFFE
0009
FFEC
0002
0039
0004
FFF2
FFED
0000
000F
000F
0005
FFF3
003E
0001
0011
000E
FFF5
0006
FFFD
0002
0014
000E
FFEB
0000
FFF7
000D
FFF9
FFF7
000E
FFF1
0001
FFFE
FFEF
FFEF
FFF1
0005
FFEF
0003
FFF0
000B
FFF4
FFFB
0009
FFFB
0001
0008
000A
FFFE
FFF1
0002
000E
FFF7
0013
FFED
FFFC
FFF0
FFDF
FFF2
FFF9
FFF4
FFFE
0014
0010
FFEC
000A
FFF8
0007
0043
000B
FFFC
000C
FFEC
FFF8
0005
FFF3
FFFB
0033
000A
FFFA
FFF3
0014
000E
FFFD
FFEF
0002
0001
0012
0008
0003
0012
FFEC
0003
0000
FFDA
FFF0
FFFB
FFF8
FFF8
FFFB
FFFD
FFF7
FFF9
FFF5
0015
FFFA
000F
0000
FFEF
0007
FFFD
000E
0003
0001
FFF8
FFF2
000A
FFF7
0005
0022
FFEB
FFD8
FFF7
000B
0009
0011
FFEC
0039
FFFF
FFFD
0011
FFEC
0035
FFF5
0002
FFF6
0004
0000
FFF6
000C
000D
001C
FFFC
0013
FFF4
0010
0014
FFF9
000A
FFF2
000A
FFFF
FFF1
000E
0006
FFE1
000C
000D
FFF5
FFFC
FFEE
FFFA
FFF3
0000
000E
000E
FFED
000B
001F
FFFE
FFFF
FFF4
FFFD
FFF0
FFF3
000F
FFF1
FFEF
FFEF
FFFB
FFF5
000C
0014
FFF3
0008
FFCA
FFF6
0005
FFF0
FFF1
0010
0038
0008
FFEE
FFF6
FFFA
0045
0013
000F
0014
FFF7
FFEE
0004
FFFF
0000
0003
FFED
FFF1
FFEF
FFF2
000B
0009
000F
0008
0001
0002
FFF5
FFFC
0003
FFD1
0001
000B
FFD6
0010
FFF0
FFF3
FFF5
FFED
000D
0007
000E
FFF7
FFFD
0011
FFFD
000F
0006
0000
0007
0001
FFEC
0005
0013
0005
0007
FFF7
FFF1
0003
0005
FFD4
0003
FFFF
FFF2
FFF3
000A
001B
0002
0003
000F
0015
0029
FFEC
0000
FFF7
0000
0000
0013
000F
FFF6
0027
0010
FFEB
FFE4
0005
0013
FFF4
0003
FFFC
0003
0007
FFF1
000D
0014
FFEE
FFED
0002
FFCE
000F
0001
0001
0005
FFFC
000C
FFED
0001
0005
0016
0001
FFFD
000F
0010
0005
FFEE
FFF3
0009
FFEE
FFF0
FFF6
0008
FFFA
FFEC
FFF2
0004
FFF3
0014
0003
FFF4
FFF3
FFFF
FFF6
FFF0
0006
FFF2
FFFF
FFFD
FFF7
000A
0002
000F
FFF4
0003
FFF6
FFF6
FFF3
0007
000F
FFF2
FFF5
FFF8
FFFA
0000
000E
0004
0002
000A
0007
0010
0000
0007
0012
0009
FFEF
000C
0005
FFF7
FFFF
FFF9
FFFF
0014
FFEC
FFED
FFF8
0003
FFF8
0009
0000
FFFE
0015
000A
000C
0013
000C
FFF0
0002
FFF4
FFF4
FFF2
FFF6
FFF8
000B
FFED
FFEB
FFF7
0005
0002
000E
FFFA
FFF1
FFEC
FFEC
FFFA
000B
000D
0004
0005
0000
0008
0007
FFF2
0000
000C
FFF5
0002
FFFC
000B
FFFF
0013
0002
0007
FFF9
0015
0013
0003
0000
000F
FFEC
FFFC
FFF5
0013
0002
000F
0004
FFF3
0004
FFED
000B
000D
FFF3
0002
FFF8
0001
FFFF
FFF3
000E
FFF1
000C
0008
FFFD
FFEC
FFF1
000C
FFEC
FFFA
0014
0001
000D
000B
000C
0013
FFF8
000C
FFF4
000D
0010
FFFC
FFF6
FFEB
FFF5
FFED
FFEE
FFFF
FFF6
0002
FFEF
0006
FFEB
0006
000E
FFEB
FFFA
000B
0008
000A
0006
000C
0000
FFFD
000B
0013
0014
FFF4
FFF4
0000
FFF5
0014
0003
0000
0001
0005
0006
0010
0012
0013
0014
000E
FFF2
FFFA
0011
0002
FFF5
FFF4
FFF0
FFFE
0009
0001
FFF1
FFFB
FFFC
000F
FFFE
FFFD
FFF7
FFED
FFF1
0013
FFEC
0007
0015
0009
000C
FFFE
0004
000F
FFFF
FFFD
000E
0002
FFF9
FFF1
FFFB
FFF0
0014
FFFB
000D
0003
FFF7
FFF9
FFEF
0014
FFF1
000B
0008
FFF6
0000
0007
0003
0001
000A
FFF8
FFF2
FFFF
0005
0003
0002
0000
FFEE
0015
000E
FFFC
0011
FFFA
FFFB
0011
0005
0014
FFF9
FFF1
FFF3
000B
FFFD
FFF2
FFEE
FFF9
FFEB
FFF6
FFEF
0009
000E
000B
FFFB
0013
FFF4
0015
FFEE
FFEC
000B
FFEE
000B
FFF0
FFF5
0010
FFF2
0003
FFFF
000A
FFFF
0003
0012
000A
0015
FFF4
000E
0012
0001
000F
000C
FFF0
FFFC
FFF1
FFF3
0005
000B
FFFE
FFFF
FFFA
000D
0000
FFF1
0004
FFEF
0011
FFF3
0002
FFED
FFF3
0004
FFF3
0001
FFF7
0007
FFEF
000F
FFFA
FFF8
000A
0001
FFED
FFFB
FFF3
FFF3
0003
0001
FFF0
FFF9
0007
FFFA
000A
0009
FFF5
0013
FFF3
0003
0010
FFFE
0013
FFF5
FFF0
0014
FFFD
0012
0000
FFEE
FFEC
0002
0003
FFED
FFEB
0015
0011
000A
0013
FFFA
0011
000C
FFF2
FFFE
000D
000C
0003
0003
0015
0014
FFFA
0002
0008
0013
000D
FFF6
0001
0004
0003
0002
000A
FFF4
FFFA
FFEF
0015
FFF2
0007
0007
0010
FFF1
000D
FFFE
FFFD
FFF7
0002
0012
002B
FFEC
FFF4
0009
0015
0008
FFF5
0010
FFF3
FFEE
0011
0000
000A
FFF0
FFF7
FFFE
FFF0
0009
FFEC
FFEB
FFF5
FFF1
FFF8
0006
FFF4
FFFA
FFFD
FFEC
FFF4
000D
000F
000E
0010
FFEE
000F
0008
FFEF
000C
FFED
FFFB
0001
000A
FFFA
FFEF
FFF2
FFF5
FFFE
000E
0002
FFFF
000F
0007
000C
FFDB
000D
FFF4
FFF9
FFEC
0008
0012
0007
FFFC
FFEE
0011
FFF9
0006
0002
FFF7
0003
FFF1
FFF7
FFFB
0002
FFF4
0005
FFF8
0007
FFF1
FFF3
0015
0001
FFFA
0004
FFFD
0007
FFF7
0012
0008
0008
0010
FFFB
FFF9
0012
0008
FFFC
0040
0001
000B
FFFF
000A
0001
FFEE
0000
FFF3
FFFC
FFF1
FFFE
FFF5
FFEF
FFF5
FFEB
0010
FFF3
0002
FFFC
000C
0007
FFE3
0015
0011
000C
FFFE
FFFE
FFF7
FFF1
0003
FFFD
0010
0016
FFEE
000F
000C
FFED
0000
0009
FFFA
FFF3
0018
FFEE
FFFC
FFF0
0000
FFFD
FFF2
FFFE
000D
FFEC
0003
000B
0015
0003
FFFE
0006
0001
0014
000E
FFF9
0009
0014
0018
FFF5
000D
0004
FFEC
0027
FFF1
0000
FFFC
000D
FFF4
0000
0000
FFF7
0012
0012
0011
0006
0012
FFEE
0008
FFFE
0004
FFEB
FFFC
0006
0000
FFFD
FFE6
0004
0007
FFEF
FFED
0040
FFF7
FFF3
FFF3
000A
000B
000B
0016
0001
000A
0006
FFEF
0002
FFFE
000C
0002
FFEC
FFF2
FFF8
FFEF
0005
FFF8
FFF9
FFF9
FFF5
0004
000B
FFF2
FFF1
000A
FFF8
0005
FFFE
0008
FFFA
FFEC
001B
FFF6
FFFE
FFF2
FFFE
0000
0001
FFEF
FFF0
FFFC
FFF5
0012
FFF8
FFF4
0006
0009
0001
FFE8
FFF2
FFFC
000B
FFF0
0002
0006
0007
FFF5
0011
000D
0058
FFEE
0008
000A
FFFA
0014
000F
000E
FFF6
0027
FFF5
000C
FFF6
0014
FFF6
FFF9
FFED
FFEC
0008
FFFF
FFF5
0009
FFF9
FFF9
FFFE
FFF8
FFF1
FFFD
FFF3
FFF5
FFDE
FFF1
0001
FFF4
FFFB
FFEC
001C
FFF8
FFF9
0002
0003
FFF7
FFEF
0001
FFFE
FFFC
FFFE
FFFD
FFFD
0016
FFE7
0014
FFED
FFD9
FFFE
FFF8
FFF8
0011
FFE7
FFFB
0006
0014
0005
FFFE
0042
FFFB
0018
0007
0000
FFFA
000F
FFF4
FFFD
0021
0004
000C
FFEF
FFF9
FFEF
FFEA
FFFA
FFFD
FFF3
FFEB
000D
000D
0000
FFFC
FFED
FFFD
FFDD
FFFF
0004
0009
FFEF
0010
0005
0011
000F
FFFB
0005
000D
0011
000D
0005
FFF9
FFF0
FFF6
FFF4
FFF1
000A
0000
FFF5
0011
FFF3
0000
0011
FFD3
FFEA
FFF3
000D
FFF5
FFE8
FFE3
FFEB
0003
0014
0004
0030
000E
FFF9
000D
FFE7
FFF3
FFFC
000F
0007
0011
FFFA
0006
0005
0001
000C
FFF1
000E
0001
FFF3
0000
FFF9
FFFA
0014
000E
0000
0005
FFF1
FFF2
FFF8
FFFF
FFFE
FFD0
FFFF
0003
FFF8
FFFF
000E
FFFF
FFF5
0012
FFF6
FFF3
0001
0012
0013
000F
0002
000F
0001
0002
FFE4
0033
0009
FFF9
000D
000C
FFFC
FFEA
FFF8
FFF6
000F
FFEF
0004
0005
0018
FFFE
0009
FFFA
0005
FFF8
0002
0001
000D
001A
FFFC
FFEF
FFEF
0005
0006
FFF3
0006
0013
FFF4
0005
FFFA
FFEF
FFF5
FFE9
FFF7
000F
FFED
FFF6
FFF4
FFEA
0017
FFDA
FFFA
0000
0010
FFEF
0011
FFFD
0006
FFF6
0007
FFED
FFE1
FFF8
FFEF
000A
0000
000A
FFFF
FFFB
0005
0035
0008
FFDC
FFF3
0013
0011
FFF3
FFF7
FFE7
FFEE
000A
FFED
0001
0003
0011
000B
FFFB
0009
FFF4
000E
000A
FFFE
0015
FFFA
FFF1
FFF7
001E
0000
FFF0
FFEA
FFEB
FFF0
FFDF
000D
FFFA
FFFE
FFE5
FFF5
FFEC
FFD6
FFDB
FFFF
FFF5
0030
FFE2
FFED
0006
000C
FFF0
0010
0015
0007
FFEF
0001
0007
0005
000C
0006
000B
FFFB
FFF6
0006
FFEB
FFEB
002A
000F
FFE9
0001
FFF5
0012
FFF6
0005
FFF5
FFEC
FFEF
FFD7
000D
002A
0012
000D
FFF4
0000
FFFA
FFFF
FFF2
0009
FFFF
0005
FFE6
0004
0019
FFF0
000D
FFF0
FFF4
FFF0
FFF4
FFF7
FFFE
FFF1
FFDD
FFFF
0000
FFE2
FFFD
0016
FFFD
0023
FFD4
0004
FFF1
FFFD
FFF4
0030
FFFF
0000
FFED
FFEE
FFEE
FFE6
000E
0001
0003
000F
FFEE
0009
000E
FFEE
FFE3
0008
FFEA
FFDE
FFFA
FFF5
FFF6
FFF2
FFE0
FFEE
FFFC
FFE1
0013
0035
FFEF
0008
FFF8
FFF2
FFF7
0008
FFFE
0001
0027
FFF4
FFEF
0009
FFDA
0006
FFEC
0000
FFF0
0011
FFFC
FFF2
0000
0003
FFDC
0009
FFEC
FFCD
FFDE
0015
FFFD
002D
FFDC
FFF8
0007
000D
FFF6
003C
000C
FFF0
FFF5
0005
000F
0008
0011
0004
0001
FFFA
0003
FFF0
FFFA
0003
FFEE
FFF3
FFBC
FFED
FFF0
000B
FFF3
0011
FFCB
FFEB
000F
0000
0014
000E
0000
0006
000B
FFE8
000A
FFF5
000C
0003
0026
0010
0006
0012
0004
0004
000E
0000
0005
FFF4
FFF0
FFE9
FFFA
FFF1
FFED
FFFA
FFF5
FFC3
FFDD
0010
0001
000E
FFD8
FFF8
0013
FFF9
000D
003E
FFFC
0020
FFDB
0000
000F
FFF1
0017
FFF9
FFFA
FFFD
FFF7
0003
FFFF
0001
FFF2
FFFA
FFB6
0000
FFF2
0002
FFD1
FFF4
FFB8
FFF9
000A
0010
FFEE
0017
FFF3
0004
FFF1
FFF6
FFF6
FFF6
FFF7
000F
001A
0001
000A
0015
FFF0
FFF8
000D
0006
000B
FFF7
001E
FFEA
FFF8
FFED
FFF4
FFF0
000D
FFD4
FFEF
FFFC
0019
0035
FFDC
0000
FFF6
000E
000A
0041
0009
0015
0000
FFFF
0011
0003
000E
FFF9
FFFE
FFE7
000A
0000
FFEF
FFF8
0003
000C
FFE8
FFF3
000B
0001
FFD2
FFED
FFB8
0008
FFFF
FFF2
FFE2
000D
FFF2
0003
000B
FFF6
FFEF
0006
0000
0012
FFFB
FFEF
0000
FFFF
FFE8
0013
FFF6
0002
0013
FFFC
0039
FFFB
FFF5
0014
FFE4
0012
FFF5
FFEF
FFFB
001A
0003
0011
FFD1
0008
000D
000A
0009
001D
0002
0023
FFF7
0012
000B
FFF7
0008
FFF5
0011
0000
0006
000F
FFF2
0003
0010
000A
FFD1
FFF2
FFF0
FFF2
FFE9
FFFF
FFF0
0000
000E
FFE6
0007
000F
FFF5
0008
FFFB
FFEB
000E
FFED
FFF9
0008
0024
0004
0004
0006
FFC9
FFF2
FFFD
FFE6
FFF0
FFE3
003D
0002
0006
000B
FFDA
FFF4
0004
0001
FFCD
0016
0000
FFD5
FFD7
FFEA
FFF3
FFE9
0001
0012
FFFD
0019
0005
0002
0002
FFFA
0004
0015
000E
FFEE
0005
000C
FFF5
0000
0010
FFFC
FFF4
FFFA
0002
FFFE
000A
0008
000E
FFF6
0001
FFE4
0002
0020
0004
FFE9
0013
000A
0008
0009
FFF8
FFF8
0010
FFF2
FFED
0015
FFD1
000E
0008
FFFA
0009
0000
005A
FFE9
000F
000B
FFDE
0008
FFFB
FFEB
FFC3
001B
FFFB
FFEB
FFC4
000E
FFF7
000A
FFFD
0000
FFF7
004E
000B
FFF2
FFF3
FFFD
FFF6
FFFD
0000
FFDA
FFF5
0014
000F
000E
FFF4
FFEE
FFD8
FFE8
FFF9
0018
0007
000B
FFFC
0004
FFF1
FFD7
000A
001B
0014
000F
0008
FFFB
0008
FFED
0001
0006
0032
0000
FFF1
000E
FFEC
FFF4
FFEB
0007
FFF5
FFEA
000A
FFF5
FFF3
0005
FFFA
FFF4
0003
FFEB
FFE3
001A
0000
FFC7
FFCA
FFE8
0006
000D
0009
FFFA
0010
0026
0001
FFF2
FFF3
FFF0
0009
0012
0005
0002
FFF3
FFF0
0009
FFEF
FFDE
FFFB
FFB6
0010
0000
FFFB
FFF5
FFF5
FFDA
FFFD
0006
FFF0
0002
001E
FFEB
0006
0000
0003
FFFB
FFF9
FFE2
0016
003B
FFFF
0004
FFF3
FFED
0004
FFFF
FFEE
0007
002E
001B
0013
FFFD
0009
FFD9
FFF4
FFF0
FFE8
FFDF
FFFC
FFEF
FFB9
FFE6
FFF9
FFEF
0010
FFFF
FFFD
0006
000E
FFFA
FFFB
0009
FFFD
FFEF
000A
000C
FFF8
FFF1
FFF4
FFF1
FFFE
0010
0000
FFB8
FFF8
000F
000A
0012
FFEF
FFDF
0006
0002
FFF8
0017
002E
000B
FFF0
000D
0004
FFEC
000E
FFE8
FFEC
0023
FFFF
0005
0010
000E
000A
FFF8
FFF1
FFFD
0045
0027
0009
0008
FFF8
FFE2
FFF6
0009
FFF8
0009
FFEB
0008
FFD7
FFD7
FFED
FFF4
0010
0001
0003
0002
0001
000A
0014
FFF1
000D
000F
FFF8
000D
FFFF
FFF9
FFF6
FFFA
FFF0
0000
FFFE
FFF7
FFFC
000E
FFFA
FFF8
FFF7
001A
0005
FFF1
0010
0019
0037
000C
0000
0001
FFF1
FFF5
0008
0007
FFF3
000B
FFF5
FFF9
FFF5
000C
0002
FFF3
FFF4
FFFE
002E
0001
FFFE
0001
0006
FFE0
FFF1
FFFB
0007
FFFA
FFEC
000A
FFF9
FFDC
FFEE
0010
0010
0019
000B
0009
FFEE
001B
FFF1
FFF0
FFFA
000B
0000
FFF0
FFFB
0007
FFEB
FFFB
0013
FFDC
0012
FFEC
FFEE
000D
000E
0012
FFF6
0022
0010
0003
FFED
000F
005D
FFF9
0000
FFF2
0014
FFFA
0014
FFEF
FFFB
0002
FFFD
0003
0003
FFFB
FFF2
FFF9
0012
FFEE
0005
FFE5
0008
FFFE
000D
FFD1
0010
FFFB
FFED
FFE9
FFF1
0007
FFF0
0004
FFF6
FFF0
FFEF
FFFE
FFFE
FFFE
0024
FFF7
0005
FFF8
FFF8
0015
0016
0004
FFFA
0008
0011
0000
FFFD
FFEC
0002
FFCB
000A
0001
000F
000A
FFFF
FFFC
000F
FFF0
000E
0002
0046
000B
FFEC
FFFB
FFFC
FFFD
0007
0014
0010
FFE7
FFEC
0014
FFF5
0006
FFFC
0011
FFF5
FFF1
0000
0008
FFF7
0013
FFED
FFEB
000D
000D
FFCD
FFF9
0012
000B
0014
FFF9
0012
FFFA
FFF1
0005
FFEB
FFFE
FFF8
0018
000B
0000
FFFA
FFEC
001C
FFF1
000D
FFF1
0004
FFFB
000D
0013
FFF1
FFFE
0009
FFFC
000F
0005
FFF6
FFF1
0011
000B
000D
0006
002B
0008
0006
0003
0003
FFEE
FFF6
FFFC
FFF3
FFF4
FFFB
0000
0012
FFF7
FFF3
FFEF
FFF6
0005
0000
FFF9
FFF6
FFF5
0008
FFF1
FFF3
FFFE
FFF6
FFEF
FFFB
FFF9
0018
FFFA
FFF6
0011
000A
0005
FFF9
FFFC
FFFC
0006
FFEB
FFF5
FFEE
FFEE
001E
FFF0
FFFA
0005
FFEE
FFEC
FFF4
002F
FFFD
0001
FFF4
FFFB
FFF1
FFF8
0012
0001
0000
0007
FFFD
FFF9
000D
FFEC
FFEE
0007
FFEF
FFEC
FFF9
0006
0000
0011
0010
000C
0000
0011
000D
FFEB
000F
FFEF
000C
0008
000C
0002
FFFB
0002
0010
000E
000C
000D
0002
FFEF
000A
0003
000E
FFFF
FFEE
000C
0003
FFF7
FFFA
0014
FFFC
FFEB
0006
FFEC
FFEC
FFEE
FFF2
FFEE
000E
0000
000F
FFFA
0000
0011
0000
0000
0009
FFF3
FFEC
0005
FFFF
FFFD
0015
FFFA
000D
FFFE
FFF1
000A
FFFA
FFED
FFF6
FFFE
FFFB
FFFB
FFF8
FFFF
FFFA
FFF1
0008
FFF3
0008
0003
FFED
0002
0008
FFF6
FFF1
0006
0011
FFFA
0000
000F
000E
0012
FFEF
FFFF
000D
0014
FFEC
FFFB
FFEF
FFF1
0011
0013
FFF2
0011
FFF8
FFF0
0006
0009
0006
000F
FFF7
FFF5
0000
0010
FFF6
FFF5
0004
0010
FFF6
0015
000E
FFF2
FFEE
FFF5
0005
0009
0005
0011
FFF9
FFFD
0008
FFF3
FFFB
FFF3
000B
FFFD
0004
000F
FFF8
0004
000A
000F
0002
0010
FFF6
FFF5
FFF3
0006
000D
FFFA
000C
FFFB
000D
0005
FFF1
FFFA
0003
0007
0015
0010
000D
FFF3
0006
FFF9
FFF6
0004
0013
FFFE
FFEF
FFFD
0014
FFEF
FFEE
0006
FFF5
0010
0011
000D
0011
FFF1
0014
000E
0000
0014
FFF4
0005
FFFA
FFF0
0007
0004
FFF2
0002
FFF0
000D
FFF3
FFF7
FFFF
0000
FFF3
0003
FFF6
0013
000A
FFFA
0000
0000
FFFB
FFEC
FFF0
0010
FFF0
0011
FFFF
0000
000A
0010
FFEE
0004
0008
0004
0015
000F
FFFF
0004
FFF1
0011
0005
FFEB
0011
FFFD
000B
000F
0003
0004
000C
FFF9
000B
FFED
000F
0000
0007
FFEB
FFFF
0003
0000
000E
000B
FFF0
0013
FFFD
FFFF
0011
000E
000E
FFF3
000F
000D
FFEE
0011
0013
FFFA
000B
FFFB
FFEF
FFF6
0014
FFFB
0004
0004
0005
FFF4
FFF3
FFF6
000C
FFEC
000F
FFFD
FFEF
FFF0
0000
FFFB
0000
0003
000A
0000
FFF8
FFF2
FFF5
0008
FFF8
FFF2
FFED
FFF1
FFF2
FFF8
FFF5
0009
0000
0015
0005
0011
FFFD
0000
FFFB
0006
FFFF
FFF9
0012
0009
FFF9
FFEB
FFEE
0005
FFFB
0007
0005
0005
FFFD
FFE5
0000
FFFE
0013
FFF6
000C
FFF5
000E
FFF7
FFED
0015
FFF5
FFF2
FFF8
FFF8
0004
0001
FFEF
0009
002C
0014
0008
0005
0014
FFED
000C
0012
FFF4
FFEF
000F
0014
FFF0
FFFB
0006
0012
000C
0000
FFF2
0003
0006
FFFA
0003
0005
FFEE
FFF5
0007
000D
0006
FFF1
FFED
FFFF
FFF5
FFF9
FFE5
000E
0002
FFEB
FFF5
FFF3
FFF8
0009
000D
FFF3
0006
0032
FFF6
FFFF
0006
FFEE
FFF8
FFFB
FFFB
FFF6
FFF6
FFFE
0001
0003
FFF3
000F
FFEC
FFF2
FFFA
FFEC
0032
0000
0005
0011
000F
0000
000B
0000
FFEE
0012
FFEC
0000
0025
FFF2
FFF5
0008
0013
0005
0006
0009
0007
FFF7
FFEE
0007
0010
000F
0002
FFFD
0004
0001
FFFF
FFF8
0020
0001
FFD3
0004
FFEC
0015
0013
FFEE
0015
FFF7
FFEF
0014
FFF3
001A
0009
0009
0006
0004
FFF5
0001
000C
FFF2
0020
FFEF
FFF5
FFEF
0004
FFF6
FFFD
FFEC
0006
FFF4
0003
0003
000D
0012
000D
0002
000A
FFE0
0016
0006
000E
FFF1
0019
FFF0
FFFB
0013
FFF0
000F
0009
0011
FFFA
FFF9
FFF9
FFF8
FFF6
FFED
FFFF
0011
FFF5
FFF8
FFF5
FFF3
0024
0003
0000
0007
FFFB
0008
0008
000D
FFEC
FFF7
0015
FFF2
0016
002A
0013
0007
0013
000A
0007
0006
FFF9
0001
0000
FFED
FFF0
FFF0
0017
0015
0007
FFEC
000F
FFEF
FFFB
0007
0000
FFF4
0000
FFF5
FFFA
FFF5
0017
0000
FFFF
0008
0001
FFF4
FFF5
FFF9
FFF4
000A
0006
FFF0
FFF1
000E
FFFA
FFFA
FFF2
0012
0004
0013
0018
0012
FFF3
0002
0022
FFEF
FFC9
FFFE
FFF8
FFFB
0010
FFF1
FFE7
000C
0003
FFF5
0002
002B
FFF1
0005
0014
0005
0010
FFED
000B
0009
0029
0004
000D
000F
002D
FFF0
000A
FFFE
FFF5
0016
FFF7
0000
0006
FFF1
FFD5
FFF3
0004
000A
001C
0016
0012
0005
FFEB
FFEB
000D
0013
FFF5
0002
FFF6
FFF3
FFF9
FFF6
FFEF
FFF8
FFF0
001D
000A
FFFF
FFFF
FFFF
000C
FFEA
004C
000A
FFCF
0002
0000
0013
000C
FFF7
FFF7
FFF2
FFF2
0008
0002
0034
0000
000C
0001
FFFB
FFF6
FFF4
FFF7
FFFF
001B
0009
FFF4
FFEB
0046
FFF8
FFF4
FFFF
0007
0013
0018
FFFF
000E
FFF7
FFE9
FFF7
0006
FFF2
0017
FFF9
0006
0010
FFE6
FFEE
FFF8
0007
0016
0013
0009
0021
0007
FFE5
0001
0000
0002
FFFE
0008
000D
FFF5
0020
0014
FFFE
0030
FFF8
FFBA
0009
FFFC
0003
FFF8
FFFF
FFE7
FFFE
000D
0003
0002
0009
FFF2
FFF9
0012
FFE5
000B
FFF1
FFF4
FFF0
001E
FFEA
FFFA
FFE9
003E
FFF5
0003
FFF1
0012
0005
001A
FFEE
0001
0010
FFDA
FFFC
FFEE
FFC8
0019
FFF1
0001
0017
FFBE
000B
FFFA
FFEE
0003
0014
FFFE
FFE9
FFE5
FFF0
0003
FFDE
0000
000B
FFF9
FFFC
FFFD
0000
0010
0000
003B
FFFB
FFAE
FFF8
0012
000B
0006
FFF0
FFF2
FFF4
0004
0005
0026
FFFE
FFEA
0010
FFEE
FFED
FFEB
000B
0000
001B
0018
FFFE
FFF3
0004
FFF2
000C
FFF4
FFFA
0012
0007
FFEF
FFFE
FFFE
FFFC
FFCE
FFF6
000D
FFB7
FFF4
FFD8
0006
0018
FF9B
0009
000B
0004
FFEE
0021
FFEB
FFEA
FFF4
FFFC
000C
FFE1
FFF3
0019
FFF1
FFFA
0007
0000
FFF5
000A
0033
FFED
FFC6
FFE7
0013
0016
FFEF
000B
FFF5
FFEB
FFF4
0018
001F
FFF5
0009
0008
FFF9
FFFF
FFEF
0005
000F
000F
FFFC
FFF0
FFFE
0008
0001
000E
FFF8
000A
0005
FFFF
FFC9
FFF3
FFFB
000E
FFEF
FFF1
0007
FFCD
FFD1
FFD5
0006
FFFA
FFAE
FFF2
000B
FFF2
FFF8
0008
FFF2
FFE5
FFF7
0006
0004
FFF3
FFEE
FFF9
0001
0011
FFF5
FFFD
0000
0003
0024
0004
FFE8
FFE7
0016
FFEF
FFF0
000C
0005
FFFD
000D
FFD9
0012
0001
0002
FFF4
FFE9
FFF3
FFF7
FFFC
0019
FFFF
001A
0000
0001
FFF2
001A
FFFC
FFF4
0008
FFF9
0002
FFA7
FFFA
FFF9
FFF0
FFD9
0010
FFEA
FFEC
FFF2
0006
000F
0024
FFCB
000D
FFF0
0008
FFEB
0016
FFFB
FFF8
FFFA
FFEF
FFEF
FFFB
0004
FFE1
000F
FFFE
FFF2
FFF3
FFF0
0004
FFFF
FFFC
FFD4
FFEE
FFF2
0004
FFE5
FFFE
FFCD
FFF3
0000
FFE3
0020
FFDE
0011
FFF9
000E
FFF7
FFF6
FFF3
0014
0002
001B
FFEB
FFF1
FFFE
000F
FFF9
000E
0005
0001
FFFD
FFF2
FFFC
0005
0013
FFD1
000E
FFF6
FFD8
FFFF
0001
FFF3
0016
FFDF
FFF8
0000
0004
0000
0019
0009
000C
FFE0
000B
FFF7
FFEC
FFF9
FFEB
FFFC
FFE7
0002
FFF3
FFF7
FFFD
0010
FFF5
FF7D
FFFB
0003
FFFE
FFF7
FFED
FFF0
FFFB
000B
FFE9
0023
FFFD
FFFF
FFF4
0010
0008
FFFA
0002
0003
FFF6
0007
000B
FFF9
000D
0022
000E
0000
FFF6
FFF9
FFDB
FFF2
FFFD
FFE8
FFEF
FFA9
000E
FFF5
FFCF
FFEE
FFF2
0000
000B
FFF0
FFE3
FFFD
0004
FFEE
000A
000A
FFFC
FFF3
0000
0005
FFE5
FFFC
FFE7
0003
0008
FFFD
000C
0012
FFF0
FFEC
FFF5
FF9D
FFF8
0009
0004
FFC3
FFF5
FFE0
0006
0008
FFE8
001B
FFFE
FFF9
0013
0005
FFF8
0012
FFF8
0014
FFFD
FFFD
FFF2
0008
FFF8
0012
000B
FFE4
FFFE
FFF6
FFE3
FFED
FFDE
000B
0009
FFC3
FFF4
FFED
FFBF
0004
FFF4
0012
0016
000A
FFEB
000F
000C
FFFF
000D
0002
0023
FFF2
FFE5
FFF9
000B
FFF4
0000
FFEE
FFFA
FFFC
FFF8
FFF9
FFEA
FFFC
FFF6
FFAD
FFEF
FFFC
FFE7
FFC6
0001
FFCF
0002
FFEB
FFC5
001B
FFFB
FFF9
0009
0002
FFFD
000C
0000
000F
FFFF
0007
FFF0
FFFE
000B
000D
FFFE
0007
0007
FFEC
FFC5
FFF9
FFE8
0001
FFF6
FFC8
FFF9
FFF6
FFFC
FFF1
FFE9
000A
FFF6
FFE1
FFEF
0000
FFFB
FFED
FFF3
0011
FFF6
FFE7
FFFB
0011
FFF5
FFEA
0003
0011
FFF7
0005
FFF1
0000
0001
0000
FFFC
FFC9
001C
0007
FFF0
FFE6
FFF7
FFD5
000D
FFEF
FFE3
FFF9
FFFD
FFF4
FFFD
000A
FFF4
0000
FFE4
FFF9
0000
0001
FFFF
FFEF
FFFC
FFF4
FFF6
FFF6
FFF1
0012
FFC8
FFEF
FFF2
FFFD
FFFD
FFB5
000E
000E
FFFD
0019
000C
0007
0002
FFF0
0008
FFF1
FFF2
0004
0004
000D
FFF4
FFD3
FFEC
0009
FFF5
0009
0012
0009
FFFA
FFF7
FFEE
FFF4
000B
0001
0009
FFE9
FFFE
0013
FFFB
0001
FFFA
FFEF
0006
FFFC
FFDB
001D
FFF9
0001
FFEF
0001
0004
0012
FFFA
FFF9
0009
0009
000F
FFF8
000B
FFFB
FFF8
FFF2
FFFD
0003
FFE4
FFFD
FFF3
FFE9
0009
FFF5
FFF3
FFF1
FFD0
0020
FFF2
FFFB
0008
0002
FFF3
0011
FFFB
0005
0000
000F
0011
FFDA
0001
0011
FFE8
0009
0004
FFF9
FFDF
FFFE
FFFE
000C
FFF1
FFEF
FFEB
FFC5
FFF9
FFF9
FFEB
0013
FFFE
0025
FFF3
FFF0
0006
0008
0004
000C
0010
0009
0005
FFEF
FFF5
0001
0011
000D
FFF1
0002
0000
FFD2
FFFC
0002
FFE9
0000
FFEE
FFED
0001
FFEC
0004
000C
FFED
FFFF
FFC8
000D
000F
FFFB
FFE4
FFD0
000D
0009
FFF3
000A
0008
FFFB
0022
FFDB
0012
0014
FFFD
FFED
FFF2
FFEC
FFEC
0001
FFFE
FFF7
FFFE
FFE4
0001
FFDD
0003
FFFC
000D
FFF1
0008
FFF2
0011
FFEE
0010
FFF0
000D
FFEB
0002
FFF9
FFFC
FFF2
0004
FFFA
FFF4
0007
0009
001A
0000
FFDA
FFF9
FFFA
FFEA
FFEB
0023
0014
0027
FFE9
FFF6
FFE7
FFFD
000D
FFFE
FFDE
FFF2
FFE3
0006
FFE1
FFFC
FFEB
FFF0
000B
0013
000A
003C
FFF2
0005
0008
FFF8
FFEE
0004
FFFC
FFE8
FFF0
FFF6
000E
FFF5
FFE8
FFE8
0000
FFE9
FFFC
0005
000E
FFFE
FFFF
0009
FFF3
FFFA
FFD8
FFF9
FFF6
FFF9
FFFC
FFFF
FFED
FFEB
FFE4
0013
000A
FFF3
FFF9
FFFB
FFDB
FFFC
0000
FFF5
0013
0011
002B
002D
FFEC
FFFD
FFF1
FFEA
000C
FFF8
FFEB
FFE6
FFFD
FFF3
FFFC
FFF2
FFF4
FFFE
FFE4
FFF1
000E
FFFB
FFF2
FFF2
0009
FFF6
0005
0013
000F
000D
FFF2
FFF1
FFFB
FFF6
0011
FFF7
FFFC
000F
0013
0000
0002
0002
FFF6
FFFE
FFEE
FFE5
FFDF
0008
FFF3
FFF1
000B
FFFF
0003
FFDC
FFEC
0009
000E
0012
0006
FFEA
FFDB
FFEA
000E
0002
FFEE
FFD7
FFE5
000A
FFF4
FFFB
FFF9
000D
0004
0033
FFB7
0006
0006
FFE4
FFEC
0009
000B
0005
0009
000D
0010
0007
FFF8
FFFA
FFF1
0000
FFE7
0005
000F
0005
FFFB
FFF9
FFF3
0000
0001
000C
0006
FFE8
0008
FFF6
0005
FFF9
000E
000D
000D
FFD3
FFE8
0020
FFF2
000C
0005
0014
0005
FFFD
FFE3
FFEC
0019
FFFB
FFFC
FFF5
FFCB
0006
FFEC
FFF8
FFFE
001A
FFED
FFFF
0001
FFF9
FFF2
0008
FFF7
0026
FFD5
FFF6
000B
0011
FFE6
000A
0000
0003
FFFA
0012
FFFC
000E
FFE3
FFFE
FFEE
000E
0009
0015
FFF7
0000
FFE9
0015
000E
FFEB
FFE1
0010
FFE8
FFF1
0005
FFF4
0005
000A
0026
FFF3
0010
FFEF
FFEA
0024
000B
FFEF
FFF1
0000
FFFA
0008
FFEF
FFF0
FFFB
FFFB
FFEE
FFF0
FFCB
FFFE
FFEF
0003
FFF7
0022
FFF2
FFF8
0011
FFF9
FFF6
FFF1
FFF8
000F
FFE1
000C
FFFE
FFF5
FFE8
FFF9
FFEF
FFFA
FFFD
000F
0013
002E
FFD6
000D
000C
0006
FFFF
0017
0000
FFF6
0004
FFFC
000B
FFFF
FFF7
FFF4
FFF9
FFE4
000F
0012
000E
FFEE
FFF2
FFF2
0002
FFF4
FFF4
002D
FFEC
0003
000F
FFF3
FFF2
0014
FFFD
FFF4
0009
FFFA
0008
FFF1
FFF7
FFF3
0014
0002
FFF3
0009
000E
FFE4
0009
FFF9
FFF2
FFF8
000B
000F
FFF5
FFF0
0000
FFEB
FFF0
FFFA
000F
000E
0008
0007
FFF8
FFF3
FFF3
FFFB
0013
000C
000D
0008
FFED
FFFA
FFF7
0006
FFF9
FFF7
0026
0008
0002
FFFE
FFFA
FFFF
FFF0
FFF5
FFE8
FFEC
0011
0009
FFE9
FFCE
0000
FFFE
FFF8
FFEF
FFF2
0003
000E
FFF0
0000
FFF9
0014
FFFD
000B
0004
0008
0015
0001
0000
0003
FFF8
0004
FFF1
FFF2
0010
0008
0009
FFEF
0004
0000
FFF7
0017
FFFC
0014
FFEF
FFF1
0004
FFF7
000C
002C
0012
FFF5
000A
FFF1
FFEC
000B
0008
000B
FFF1
FFFD
000C
FFFC
FFF4
0019
FFFE
FFF7
0008
FFEC
000F
FFBB
FFFE
0015
0007
FFFC
FFDD
0001
FFFC
000A
0007
FFEB
FFFB
0004
0015
FFF0
FFFC
FFEF
FFFF
0012
0008
FFF4
0000
0003
0005
FFEE
0011
000E
FFFF
000D
0007
0003
FFF5
000E
FFF7
FFEC
000E
000C
FFFC
0014
FFFD
0010
FFEF
0004
000D
FFED
FFF6
0000
FFFD
0012
FFF5
FFFF
FFF2
FFFB
FFF2
0007
000D
FFF7
0004
0001
FFF5
FFEB
0000
FFF2
FFF9
FFFE
0007
FFF8
FFF5
0012
FFF0
FFF0
FFED
FFEB
000A
0007
0015
FFFF
0014
000D
FFED
FFF2
FFEC
FFEE
000F
000A
FFFD
FFFA
000E
FFF1
FFF5
FFEC
000F
000C
0002
FFFF
0000
FFFB
0009
FFED
000C
FFFC
0003
0007
FFF2
FFFF
FFF9
FFF2
0011
000A
000D
000F
FFF9
FFEF
000E
FFF5
FFF1
0004
0012
FFFC
000A
000B
000D
0009
FFFA
0010
0002
000E
FFEB
0002
FFF3
0006
FFFB
FFFA
FFF3
0014
0011
FFFE
FFF6
0013
0014
0009
0000
0005
FFF5
FFFD
FFF8
FFF5
0010
0007
0008
0010
0009
0000
FFEF
0004
FFFD
FFFD
FFEF
FFEE
0011
FFF4
FFFE
FFF4
FFEF
0000
FFF4
FFF1
FFF6
FFF9
0008
0010
FFF3
FFFD
0009
0010
000C
0013
000C
0009
0000
0010
0012
FFF6
0006
0016
0014
0006
0002
FFFD
0005
0006
FFFB
0005
000C
FFF0
FFF7
FFFC
FFFF
000C
FFFB
FFEF
FFFD
0005
FFF9
0004
0007
0013
0012
000E
FFEB
FFFC
0007
0004
FFED
0000
FFFF
FFEB
0004
0005
FFF5
FFF9
000A
FFFA
FFEF
0015
0003
0009
0002
FFF7
000D
0008
0013
0003
000C
0010
000A
FFF4
FFF9
FFF9
FFFE
000C
FFF8
FFF2
0011
000B
FFEF
FFFD
0003
0003
000F
FFED
0010
FFFB
0013
0011
0010
0011
FFFE
0008
000E
0017
FFED
0013
0014
000A
000E
0009
0003
0005
FFF9
0001
000E
0000
0010
FFFD
000B
FFFB
FFED
000B
000F
0038
000C
0014
0005
FFEE
FFFB
FFFB
0000
0009
FFFE
FFFA
FFFF
000C
000B
FFF6
000C
FFF9
000B
000B
0008
0000
0000
FFF9
FFF4
FFF0
0006
FFFF
0013
0005
FFF6
0014
FFEE
001D
0001
FFED
0012
FFEF
0006
0000
FFF2
0005
FFEF
FFEB
FFFD
0010
FFFB
0007
0011
FFFE
FFFF
000D
FFF3
000F
000B
FFF3
0011
FFFE
0002
FFEE
FFF4
FFEE
000C
000B
FFF8
003F
FFEE
0002
0010
002C
0012
000B
FFE3
0017
0028
FFF1
FFE1
0007
0018
FFF0
0000
FFED
000D
FFEB
FFF0
FFF7
0009
0004
FFF4
0010
000A
FFFA
0014
0001
FFEA
FFEF
FFEB
FFEE
0008
FFF8
0003
FFF7
FFFC
FFFA
FFFA
FFD1
0012
FFEC
0007
000D
FFC4
0002
FFF8
FFEF
FFF6
0002
0010
FFFE
FFEE
001E
FFED
FFF2
0008
004E
0002
0008
0008
FFF5
0012
FFFC
FFE3
0013
FFF0
000F
0012
FFF9
0027
0019
0011
0005
FFFF
FFD0
0001
FFFA
FFF6
FFF8
0010
000B
FFD2
FFE7
FFED
0014
FFF6
0009
0002
0006
FFFE
0015
0018
0000
FFF7
000D
FFF8
FFEB
FFEC
FFEA
FFF6
0008
FFF9
FFC6
000C
0013
000D
0015
FFE9
0004
FFFB
0002
0011
FFF3
0002
000F
0011
0038
0012
FFF8
FFFB
002E
0014
FFFA
000F
FFED
FFF7
FFF0
FFEE
FFF5
FFFC
001F
0016
FFF2
0018
FFFA
FFFC
FFFC
0022
FFCE
0005
000A
0012
FFF7
FFEF
0000
FFD5
0008
FFF9
0003
FFF6
FFFA
000A
FFFB
0002
000B
001D
FFEA
FFF4
0015
0012
FFE2
FFEB
000C
FFF8
FFFF
000F
FFF4
0013
0015
000B
0004
FFEF
000A
FFF8
FFEF
FFF3
0013
0013
FFEE
0000
0028
000F
FFF7
FFE1
0019
FFF3
0005
FFF6
0000
0013
FFF4
FFFA
FFFE
0004
FFFC
0004
FFEC
0010
FFE1
FFFD
0008
002C
FFEE
0005
0004
0011
0012
FFEB
0003
000A
FFF9
FFFA
0003
000D
FFFD
0007
FFF1
FFFE
000B
FFFB
000A
FFE9
0012
FFF5
FFF1
FFFA
FFF1
0005
FFE7
0000
FFD7
0001
0012
FFED
0025
FFE8
0004
000A
FFFD
000F
FFEE
FFF1
FFF5
FFFC
001C
000E
FFFA
FFF1
0024
FFED
0010
0012
FFEC
FFF9
FFEC
FFDF
0017
FFF4
0001
0000
FFFC
004C
002E
FFE8
FFED
001B
FFE6
FFE6
FFE7
000F
FFF0
FFF5
FFF4
FFF1
FFF6
0007
FFFC
FFE5
FFF1
0012
0005
FFEC
000C
0015
FFF2
0006
000F
0013
FFDE
FFEE
FFEA
0021
0014
FFE5
FFFC
FFF2
FFF4
0006
0020
FFD0
FFF3
0004
FFE9
FFF0
000B
FFF8
FFDF
0009
001A
000E
FFEE
FFFD
0019
0008
0000
FFFD
0013
001D
FFED
FFEF
0011
0006
FFFE
FFFD
000E
FFFE
0016
FFF0
FFF2
FFFC
FFE0
FFF8
0000
FFEE
FFF1
0017
FFEE
0000
FFF3
FFE2
0008
FFF6
FFF5
FFF2
0007
FFFB
0004
FFE8
FFFB
FFF3
0030
000C
FFE4
0005
0005
000F
0016
0003
FFFC
000A
0000
FFF8
002A
0001
FFFE
FFF3
0004
0003
0013
FFE9
000B
0002
000F
FFF6
FFDD
FFFD
FFF4
FFF1
FFF4
0009
FFF2
FFFA
FFA3
0005
FFEE
FFFC
FFD9
0000
FFFB
FFDE
000B
FFE4
FFF7
0015
FFE7
FFDE
000A
FFF5
0003
000C
0009
FFF0
FFEC
0001
0000
FFE9
0008
FFFC
0005
FFE5
FFF5
000B
FFF4
FFE2
0029
FFFA
FFD5
FFFD
FFFF
0005
002C
FFF6
0010
0010
000B
FFDC
0021
FFF2
FFFD
FFF4
FFEF
001C
FFFC
0000
FFF6
FFFA
0028
0004
FFF7
0007
0016
FFF0
FFFC
FFF6
FFE8
0006
FFB0
FFE9
FFEE
0009
FFDA
000B
0009
FFE7
0007
FFE8
FFE4
FFF6
0000
FFFA
FFF9
0000
000F
002A
FFEE
FFFE
FFFE
0001
FFFC
FFE9
FFEE
0004
FFEE
FFEE
FFFB
FFFB
FFF7
FFFB
0021
FFEA
FFE8
FFDF
FFF9
FFFB
001D
FFFE
000C
0006
0005
FFC1
0014
FFDB
FFFE
0010
FFEB
0005
0012
FFD9
FFFE
000A
FFFF
FFEA
FFFE
0006
0004
0010
FFFF
FFF7
FFFD
FFED
000A
FFF4
0003
FFF7
FFEE
0014
FFF7
0012
FFFE
FFF7
0002
FFFA
0012
FFE4
0001
FFE6
0000
001A
FFEC
0002
FFDC
FFE6
000E
FFE2
0006
FFF8
000B
FFFB
0000
0010
0009
FFE2
002A
000D
0011
FFD8
0006
0001
0014
FFF5
0019
0007
FFFF
FFBB
001C
FFE9
FFF8
FFF8
0003
FFFB
0000
FFE5
0010
0002
FFF3
0012
0011
0009
002E
0004
0009
FFEA
FFF5
FFF1
FFE1
FFF9
000C
0000
FFE5
0006
FFFD
000F
000B
FFF6
FFF9
000D
FFDE
FFFA
000E
FFF0
000C
0011
0008
FFE7
FFED
FFE0
FFFA
0000
FFE4
FFD9
FFF1
0002
FFF8
FFF6
FFEB
0003
0008
0009
FFEF
FFEE
FFFD
FFEB
002C
FFEE
0002
FFF4
000B
FFB4
000E
FFED
0003
0015
000A
FFF2
FFFA
FFC6
000A
FFF8
FFF5
0001
FFF4
FFF3
0013
0003
0006
FFFE
FFFB
FFE1
FFFF
FFFA
000B
FFE9
FFD0
FFFF
FFF0
0002
0005
0001
FFEC
FFFD
0000
0005
FFF7
FFEA
FFEC
FFEE
FFEC
0000
FFE2
0002
FFE3
FFF8
FFEB
FFDE
0002
0000
0003
000D
FFEE
FFF8
FFF7
FFED
FFF2
FFE7
FFEE
FFF2
FFFC
0000
0008
000B
0000
FFB9
000E
FFEA
000D
FFF4
FFEF
0013
FFFA
FFED
FFFF
FFF1
0006
FFFF
FFF7
FFFD
000B
FFF5
0001
FFF7
FFF9
0010
FFFB
FFE0
FFEC
FFF3
FF90
000D
0011
FFCF
0000
FFFD
FFF3
0011
FFF9
FFFE
000E
0006
0009
FFF9
FFFE
001F
FFBF
0002
0004
FFFE
FFFB
FFDB
0002
FFFC
FFF5
FFE4
000B
FFF7
FFFC
0000
FFCB
FFF4
0002
FFF3
FFDE
000E
0011
000C
0001
FFD1
001D
FFF7
0000
FFFD
0008
FFF3
000E
FFF0
FFFB
0008
FFFA
FFFE
FFE6
FFF8
0019
FFEF
0009
FFF0
000D
FFEC
FFE7
FFFB
FFF1
0009
FFA1
0013
FFEA
0003
0004
FFE5
0000
FFF4
0000
FFF8
FFFC
FFFD
000A
FFE3
FFF8
000B
FFDE
FFFB
FFEE
FFF5
FFFD
FFE6
FFF4
FFF6
FFF4
0000
000B
FFF1
000E
FFEC
0010
FFFF
0006
FFE6
0000
000B
0007
0000
FFFF
FFBF
000F
0008
FFF4
0011
0001
0006
FFEC
0000
FFFA
FFF2
0000
FFF0
FFDF
FFF0
0008
0003
FFE9
FFE7
000A
001F
0005
0006
FFF2
FFFF
FFAC
FFFA
FFEF
0000
000B
FFD0
FFE3
0009
FFFD
0006
FFE4
FFF4
FFF5
FFE5
FFEC
0001
FFF9
000C
0008
0000
FFEF
FFFB
FFFD
FFED
FFF4
FFEA
FFF0
0012
0012
FFF5
FFC5
FFF7
0000
FFEE
0002
FFFA
0000
0000
FFF3
FFCA
001E
FFFD
000A
0011
0007
0000
000A
FFEC
0008
FFEC
0014
FFEC
FFDE
FFF6
000A
0006
0004
000C
FFF5
0019
FFF6
0018
0004
0005
FFE6
FFE9
FFFB
FFDF
FFFC
FFEF
FFEE
000A
FFFA
FFE9
000D
FFFF
FFEF
FFE8
FFF3
0004
FFD7
0011
FFFB
0008
FFE9
FFF3
FFE9
FFEC
FFF4
FFED
FFF8
0005
FFF5
FFEF
FFF1
FFF3
0000
0002
FFEE
0008
FFFD
FFF0
000D
FFEC
001B
FFFA
000C
0000
FFEB
0002
FFF1
FFF2
FFED
FFF7
FFF6
0005
FFFB
000C
FFF6
0002
FFF3
FFF3
000C
FFF5
FFFA
0003
0014
FFFC
0009
0000
0000
0007
000C
FFD3
0000
FFF9
0008
FFFE
0003
0007
000D
FFEF
FFF0
0006
FFC8
FFEC
FFF1
0010
FFE6
FFF1
FFE8
FFFF
FFF2
FFFF
0003
FFF3
FFE6
FFEE
000D
FFE9
FFF9
0004
0002
FFF2
0000
0000
FFF7
001F
FFF5
FFFD
0001
FFF6
FFEB
FFF5
FFED
FFF6
FFFA
FFF3
FFEE
FFEA
FFF3
000E
FFDF
0001
0007
000A
FFEE
0007
FFE7
FFED
FFF7
FFF9
FFC0
FFEA
FFEE
0008
0008
FFF8
FFF8
FFEF
0007
000F
0004
FFF8
0004
FFFA
FFEF
FFEE
FFB5
FFF4
FFF8
FFF4
000C
FFFB
FFEA
0004
0000
000E
FFFE
FFF8
FFFD
000F
0007
FFE6
FFE5
FFFF
0009
FFF9
000A
FFFA
FFFA
000C
FFF6
0008
0003
000C
FFF3
0006
000C
FFF0
FFF4
0010
0003
0010
FFEF
0008
FFC3
0002
0010
FFE7
FFED
0008
FFEF
FFE6
000E
FFFF
FFF6
FFF7
FFF6
0000
FFF1
FFE4
FFEB
0009
FFEC
0009
0002
FFF1
0007
0001
FFF4
0031
FFC1
FFFF
FFE8
FFF2
0006
000A
0005
0003
0004
000E
0005
FFFE
FFC9
0007
0032
0000
0000
FFEF
FFF9
FFF2
FFF8
000B
0009
000C
FFEA
0013
0004
0000
000C
FFFB
FFEB
FFED
FFE1
FFF6
000B
000E
FFF1
FFFB
FFDC
FFEE
FFEE
FFFA
FFF5
FFF3
FFEA
FFFF
0002
000B
FFE4
0000
0005
003B
FFF6
FFE5
FFFA
FFF6
FFE9
FFEA
FFFA
FFF3
FFFB
FFEC
FFED
001B
FFD1
0005
FFF2
000B
0024
0019
FFF3
000C
0000
0005
FFF8
FFF9
FFEB
FFFF
0020
0001
FFFE
0001
FFF7
000F
FFE7
0008
FFF7
0021
FFF9
FFF8
FFEC
FFF7
0004
0011
FFF5
FFF0
FFEF
FFFD
FFEA
FFF7
FFEF
000C
FFD9
FFF0
0007
FFF2
0004
FFFE
FFE1
FFFF
0012
000A
FFF6
FFFC
FFE9
0024
FFED
FFFA
FFFD
FFF4
0006
0014
FFF3
FFF5
FFF6
FFEF
FFF0
0005
0020
FFE4
FFFB
000D
000B
0014
FFEA
0008
FFFE
FFE8
FFF4
0008
FFB7
FFF1
0048
FFFE
FFF3
000C
FFFA
000E
FFF4
FFE9
FFEB
0004
FFF2
0009
FFF8
FFFD
FFF2
0011
000E
FFEB
FFF9
0004
FFD9
0007
0006
FFFC
FFDE
0009
000F
0010
0015
FFF7
FFF2
FFEE
FFFE
0014
FFF2
0002
FFF4
0004
FFAA
FFFF
FFED
000B
FFD9
FFF2
000A
FFFF
0013
FFF4
FFFC
0035
002C
FFEE
FFED
FFF4
0020
0007
FFEF
0006
FFFB
0006
FFFE
FFF7
FFC4
0007
001D
FFEB
0007
FFF4
0013
FFF8
000F
0005
FFE9
FFEE
0000
0012
FFEA
FFE7
0004
0002
FFEC
0016
FFE5
0001
FFCD
FFFD
0014
FFFC
FFDF
0007
FFFD
0011
000F
FFDC
FFF9
0006
FFF0
000A
FFF4
0000
0012
FFE1
FFE7
FFE3
FFEE
FFDC
FFC3
000B
0007
FFEF
0011
0004
FFED
0027
FFF6
0006
0000
0024
FFDA
0004
000C
0008
FFFF
FFF9
0000
0003
FFE3
000F
FFF4
000E
FFE8
0008
0005
FFEF
0009
FFEF
0003
FFE0
FFEB
FFDD
0000
FFFA
FFFE
0012
FFEC
000C
000E
0009
000F
FFFC
FFF2
FFFB
FFDA
FFEE
FFEF
0009
000E
FFF9
FFEB
004F
0010
FFEE
FFFB
0005
FFED
000F
FFED
FFED
0011
FFE4
FFC3
FFFC
FFF3
FFF2
0008
000E
FFEE
0024
FFF8
FFF9
FFF2
FFEE
FFDC
FFFA
0008
000E
FFF3
0013
000A
FFFC
FFF5
0005
FFEB
0011
FFEF
FFFE
FFFB
FFF8
002B
FFF9
FFF7
FFD3
FFED
FFDD
FFF8
FFFC
0006
FFED
0004
000D
FFFB
000C
0015
FFF7
0014
FFEF
FFFB
FFF8
FFFE
0001
0003
000F
FFF0
002E
FFF8
0002
000E
FFF0
000C
000D
FFF3
0009
FFFA
FFEC
0014
FFEE
0006
FFF2
FFEF
FFFB
FFFC
0008
FFF1
FFFD
000B
FFED
FFDA
FFEE
FFFE
0012
FFF8
0006
FFFA
FFF6
FFF3
FFFF
FFFE
0015
FFFF
0014
FFFD
000E
0004
FFFB
0007
FFE5
0000
FFFD
FFEC
FFFB
0012
FFEC
FFF9
FFEE
000D
0012
FFFA
FFFD
000C
0005
FFF3
000B
0000
0005
000F
0004
FFFD
0000
FFF7
0000
0004
FFEE
FFFA
FFF0
FFF2
0014
FFF9
FFEB
FFEF
FFFE
FFF0
FFE9
0001
000C
FFFF
FFEC
0012
0008
FFF2
0007
FFFC
FFF6
FFFC
000B
FFFD
FFF9
0005
0009
0009
0013
000D
000B
000E
0003
FFFC
0007
0012
0010
000D
FFFB
000A
FFF5
FFF2
0010
FFF6
FFFD
0007
FFF6
FFF6
FFEE
FFFF
0001
000D
FFFA
000B
0013
FFEB
0014
FFF5
FFF2
0001
FFF0
0010
FFF0
0002
FFFC
0013
FFF4
FFF7
0004
0015
FFF6
0000
FFEE
FFF2
0001
000A
FFF7
FFF5
0015
FFFE
0006
0008
FFFF
FFFB
0012
FFEC
FFFC
FFEE
FFEB
0007
FFF4
000B
0005
FFF2
FFF2
000F
FFFF
000A
FFFC
0014
0009
0000
FFED
FFFE
FFFF
FFFC
FFF5
0000
0008
FFEF
FFF7
000E
FFF6
0012
0013
0000
0011
0001
0010
0009
FFED
0003
0003
0007
0006
0012
FFF7
FFF2
000C
0004
000C
FFF6
0003
0014
0013
FFFA
FFF1
0013
FFEE
FFFF
0005
0010
FFF4
FFEF
FFFD
0011
FFF6
FFFF
000C
FFF9
FFF0
000A
0015
0014
000C
FFFE
FFFC
FFF6
FFEB
000D
FFF1
FFFD
FFF9
0000
000C
FFF0
FFF6
0005
000B
0004
FFF5
000A
FFEE
FFF6
000A
FFF1
FFF3
0013
FFFA
FFFE
FFFF
001B
000D
FFF5
FFFE
FFF1
FFF9
0033
FFE3
FFFC
FFED
FFFF
FFFF
FFFC
FFF6
0006
FFED
FFF1
0004
FFFD
FFFD
0000
FFF4
FFF2
FFF2
FFED
FFF5
FFFA
000E
000E
0014
0003
000B
0007
0010
FFFB
FFE8
FFF5
FFF9
002B
0012
FFFB
FFEF
FFF9
FFF8
FFF4
0005
0013
000A
FFF3
0007
FFEF
FFE2
0012
0006
FFF7
0003
FFF7
FFF2
000A
FFFB
FFF6
0007
0006
FFF1
0023
FFED
0014
FFF5
FFFE
0008
002E
0008
000B
FFEC
FFF7
000E
FFF1
000E
FFF2
001A
0004
0025
FFF4
0012
FFF8
0006
0000
0007
000B
FFCD
FFFA
FFF1
0000
0004
0015
FFF8
FFF5
000D
FFF6
000A
0000
FFFF
0031
0008
0016
FFFE
0015
0008
FFFC
FFF7
FFE2
0002
FFF2
0014
FFFD
FFC5
000C
0007
000E
FFF6
000F
FFE6
0001
FFF4
0031
FFFC
FFF4
FFF3
0065
FFF9
0008
FFF9
0000
FFF1
FFF0
0003
FFF3
FFFB
0003
FFF4
0004
0008
0019
FFE0
0000
001B
FFF6
FFFA
0010
0009
FFEF
FFF4
FFF3
FFE9
0000
FFF9
0006
001C
FFFC
FFF8
FFEF
0009
0001
0002
0007
FFFD
FFF5
FFF5
FFF8
FFEC
FFFB
0002
FFFF
0010
FFD5
0009
0008
0019
0007
FFD9
000D
000F
0010
0001
000B
FFE8
FFF0
FFF1
FFFD
FFEE
FFEF
0007
0041
0000
000C
000F
0008
FFF3
FFF5
000E
FFEC
0009
0011
0017
0001
000F
0002
001D
FFF4
FFEC
FFDB
0004
FFF2
FFFC
0007
000C
FFEE
FFE2
0006
FFDF
FFF8
0003
FFF8
0005
0008
FFFF
0000
0011
FFF4
0005
000E
0000
0004
FFF2
FFFB
001F
FFF1
000F
FFEF
000D
000B
FFF3
0011
FFEE
000B
FFFA
000F
001F
0016
FFEF
FFF8
FFF9
FFFD
0000
FFE4
FFEB
0020
FFEA
0014
0003
FFEF
0006
FFE2
FFEA
FFF8
FFF5
000A
FFFD
FFF7
001E
FFFC
000A
FFF1
FFDB
FFEA
FFFE
FFF8
0002
0003
0004
0011
FFF0
0008
FFE9
0008
FFFF
FFFF
0000
0000
0005
FFF9
0022
FFFD
FFF5
0007
000E
FFF8
FFF5
FFEC
000C
FFE5
FFED
FFFA
0001
FFF1
FFEF
0006
FFDF
0006
FFEC
FFFA
001C
FFEC
000C
FFFE
0014
0001
0009
FFFA
0001
000E
000F
FFFB
FFF2
FFF3
FFF4
FFF6
FFDB
FFFB
FFFE
0005
0003
0000
FFF1
FFFF
0020
FFE7
000B
FFDC
FFFF
FFF4
FFFC
0005
FFFD
FFF3
0003
FFFD
FFE8
FFE5
0002
FFEB
0000
0005
FFEF
FFED
FFFA
FFF1
FFEC
0000
000C
FFF1
FFF8
FFEC
FFFE
FFD7
0007
FFF0
FFEC
FFF6
002F
001B
FFC3
FFFF
0014
FFF9
0001
0001
0008
0000
0004
000C
0008
FFD3
FFDF
0009
0000
FFF7
0000
FFF1
FFD3
FFA3
FFD9
FFE9
0000
0013
FFFE
000E
FFFE
FFF5
001D
FFEB
0029
FFF9
FFEA
FFFB
FFED
0009
0005
FFFF
000A
FFFA
FFFA
0005
FFF9
FFEF
FFFE
FFF4
0006
000C
FFEB
0008
0000
0008
0000
000E
FFDC
FFED
0015
FFFF
FFEB
FFFE
FFEB
000A
0025
0008
FFF7
0000
0003
FFFE
FFE8
0009
FFCC
FFEE
FFF0
0026
FFFD
FFF3
0009
0005
0007
000A
FFFE
FFFA
FFF6
FFAD
FFE7
000D
0012
0000
FFFC
000F
FFF0
FFF0
0006
0004
000B
0000
FFDB
FFED
000F
FFF0
FFFB
000B
0010
FFEC
FFFE
0009
FFF0
0005
0018
FFE3
0007
FFEF
000F
0006
FFF0
0000
0001
FFC3
FFFF
FFFF
FFF7
0011
FFFF
0000
FFED
FFEF
000E
0014
0001
FFFB
0002
FFF5
FFEA
0000
FFBC
FFE2
FFFE
002A
0000
FFEF
0003
0009
FFF8
FFFD
0010
FFFC
FFF2
FFD1
FFEF
000C
0002
FFF9
0019
000B
FFFE
000B
FFFF
FFE6
0018
0010
FFFC
FFE8
000A
FFF0
0002
FFEE
0005
FFE2
FFF9
FFF9
0004
0003
FFEF
FFE8
FFED
FFED
FFFF
FFFD
FFE8
0000
FFFE
FFDB
FFD5
0006
FFEF
FFF6
FFE5
0005
FFEA
FFE7
FFE1
0000
FFE2
FFE8
FFFA
FFE7
FFF1
0012
FFC8
FFF9
0008
0019
FFEC
000B
FFFF
0011
0011
FFF7
0011
FFFD
FFE8
FFD6
0003
FFEF
FFEF
0004
0009
FFE9
0015
FFFF
FFE2
0007
0012
FFE3
FFDF
0005
FFF4
000E
FFFB
000B
FFFF
FFE4
0005
0002
0009
FFFB
FFE3
FFE4
FFEA
FFFF
FFF0
FFEF
FFF2
0009
FFFC
0027
FFE2
FFFD
0005
0003
0001
0004
FFF0
FFE1
FFFA
FFFC
FFFF
0007
FFFF
FFF3
FFF2
FFFA
FFE6
000A
FFEA
FFF6
0008
FFF6
FFEF
0000
0013
0002
0000
FFFF
FFDD
FFF6
FFEA
FFF8
FFFF
FFEA
000D
FFE9
FFFA
FFEE
FFE9
FFEB
0007
FFF0
FFFC
0007
0008
000A
0004
000C
0009
FFD7
0003
0002
0005
FFD6
FFF0
FFE7
FFF1
FFE9
FFF2
FFF9
FFFA
000B
000C
0001
FFF6
0001
FFE4
0010
FFE4
0009
000F
FFF1
FFE0
000E
FFEA
FFFF
FFED
000D
FFE1
000D
FFF3
FFEE
000D
FFE3
FFEB
0000
FFFE
0010
0000
FFE0
FFF3
FFF7
FFB5
FFE4
FFE3
0006
0001
FFF6
FFF1
0009
FFC7
FFFF
FFEC
FFF4
000D
FFFB
FFF9
0005
FFE5
0010
FFF4
FFFA
FFFA
FFDC
FFE9
FFF6
FFF7
FFE6
FFEA
0008
FFEA
FFF6
0009
FFF5
FFF6
0007
FFF5
000C
FFE7
FFEA
FFEB
FFE8
0006
0004
FFF0
000B
FFF9
0002
FFF5
FFEC
FFEB
000F
FFF5
FFEC
FFE3
FFFE
0010
0009
0007
0019
FFEB
0014
0009
FFF0
0009
000F
FFBB
FFF6
FFE2
0012
FFF9
FFFF
FFFF
FFF8
FF9C
FFFA
FFFC
0008
FFF3
001B
FFFC
FFF1
FFFD
FFFE
FFD6
000E
0012
FFDA
FFDB
FFF5
FFEE
FFE0
FFE9
FFE5
FFFF
0004
FFDF
FFEF
0009
FFFC
FFF5
FFF7
FFE3
000B
FFFB
FFF9
FFEF
FFF6
FFF1
000F
FFFC
0012
FFE9
FFE9
FFEC
FFE7
FFFC
FFF6
FFE9
FFF5
0003
FFEC
FFFB
FFF5
FFFB
0004
FFF5
0000
FFE7
FFFE
FFEE
0018
FFF2
FFF2
FFE0
FFE9
FFFA
FFFB
FFE0
FFFB
FFE5
FFFF
0001
FFFF
FFEB
0001
0005
FFFD
FFCD
0001
0013
FFDE
FFE6
FFFF
FFFE
FFEC
FFF1
FFF6
FFE6
FFED
FFFB
0009
0001
0000
0012
0002
FFDE
0006
FFE6
FFF7
0000
0002
FFE7
0009
FFFE
001C
FFED
0009
FFF7
0000
FFF7
0000
FFD0
0005
FFF2
0004
FFFC
FFDF
0000
FFF9
FFFA
FFE6
000D
FFF8
FFE8
000A
0000
0009
FFF7
FFD2
FFF9
FFF9
FFF6
FFF6
FFFB
FFE4
0000
FFFC
FFE0
0002
FFF1
FFF3
FFE9
0001
0018
FFE4
0006
FFF7
FFF2
FFE8
FFF5
FFF7
FFEA
FFE9
FFFD
0008
0010
FFFF
000D
0015
FFE4
000D
FFED
FFF1
0014
000F
FFFB
0002
FFFD
0022
000E
FFF0
0004
FFE9
FFF5
FFE9
FFC8
FFFE
FFEC
FFFA
FFF2
FFDC
0018
0005
0010
FFFA
0001
0010
FFE5
FFF3
0006
000C
FFE5
FFDA
000A
FFF8
0011
FFF4
FFE2
FFE5
0002
0015
0000
FFFF
FFFC
0010
FFE3
FFF4
0007
FFC8
FFEB
FFE7
000F
FFEF
0001
000B
FFF4
FFFA
FFEF
000D
FFFE
0007
FFF9
FFFE
FFF5
000A
FFF2
FFEC
0011
FFED
FFFD
0018
FFF3
0011
FFFE
000D
000D
000B
0015
0007
FFAA
0009
FFEF
FFE5
0008
FFF6
FFF5
FFF1
0002
0007
FFFB
FFE9
FFF7
FFF7
0004
0000
000D
FFD6
FFE9
0008
001A
FFF8
FFDB
FFEF
FFF8
FFFE
FFF1
0002
0004
0000
FFF4
FFF5
0010
FFE1
FFF8
0001
FFF1
0005
FFF3
0001
000C
0001
FFFD
FFF9
0000
FFFA
000F
FFEF
FFEF
FFF2
FFFA
FFE1
FFF0
000F
FFFF
FFF0
FFE8
0025
0011
FFFF
FFF6
0006
FFFF
000F
FFBC
FFF1
0005
FFCF
FFF6
FFF2
FFF1
FFF3
0000
FFF8
FFE4
FFEF
FFF4
FFF8
0004
FFF6
FFF3
FFD5
FFEF
FFFD
0009
000C
FFD0
FFF8
0005
001A
FFF3
0001
0006
FFFF
FFE8
0004
000D
FFFF
FFFD
FFF1
FFE6
0011
0003
FFF8
FFF9
FFF6
FFFC
FFFC
FFE5
0004
FFEC
0004
FFE9
000D
FFEA
0006
FFEC
000F
0010
001D
FFEE
FFF4
0011
0000
0010
0002
0000
FFF1
FFD9
FFF6
FFED
FFDF
FFEE
FFDD
000B
FFF5
FFED
FFFA
FFF5
0010
FFFF
FFBA
0004
000D
FFF1
FFF0
000D
FFE5
0002
FFFC
FFD0
0000
FFFD
000C
0005
000B
FFE7
0010
FFE2
000A
0002
FFE2
FFFB
FFEA
FFE3
0036
FFF7
FFEA
FFF2
0002
FFEF
FFEA
FFEC
0003
FFF0
0009
FFFA
0002
FFEA
FFFC
FFF6
0017
FFE7
0011
FFFE
0006
0013
0006
FFE7
FFE8
0002
FFF1
FFF8
000C
FFFE
FFDD
000E
FFF2
FFEA
FFD2
000F
FFE6
FFF9
FFF7
0006
FFD7
0009
0011
FFF7
FFE1
FFFB
000A
0016
FFFF
FFC0
FFFF
001C
FFF2
0018
FFFC
FFFD
FFF3
000A
0004
001D
FFE2
0001
FFDE
FFEA
0017
FFF7
0011
001B
FFFC
FFFD
0008
FFEF
0014
FFF6
0007
0006
0005
FFE9
0005
0010
FFFC
0005
000B
0001
FFF0
000D
FFFF
0009
0003
0002
FFF1
FFF1
0009
FFEB
FFE9
FFEA
FFEA
0000
FFC7
0009
FFEF
0000
FFFD
0001
FFFA
0008
FFF4
FFEF
FFDE
FFF1
FFFC
FFF6
0016
FFCF
FFF3
0004
0013
000A
FFFA
FFFF
0002
FFF5
000A
0014
FFF4
0002
FFF8
FFFF
0023
0012
FFF9
0005
FFFA
000B
0012
FFEE
FFDD
FFF3
0020
0001
0009
FFEF
FFF1
0000
FFE3
0008
FFF1
FFD0
FFE3
0024
FFFB
FFF4
0014
FFF8
FFF0
FFFB
FFED
FFF3
FFCF
FFF7
FFDC
FFFE
FFF3
FFF6
FFF9
FFFB
FFF8
FFF6
FFE7
0013
FFFE
000F
FFD8
FFF7
FFEE
0021
FFF2
FFF5
FFEB
0009
FFE8
0006
0005
000F
0010
FFF1
FFFD
000C
000A
000E
FFF0
0005
0018
0002
0003
0000
FFF2
FFF5
0004
FFFA
FFB3
FFF8
0008
0010
0009
FFFA
0000
0006
0012
0012
0017
FFE3
FFF9
FFF5
FFFA
FFFF
000A
0005
FFF9
FFE4
0006
0009
FFD6
FFF2
FFE8
FFF1
FFF2
0000
0014
0015
000F
FFFA
FFE6
0013
0016
0009
FFD9
FFF3
FFE8
000B
FFEB
FFEB
0007
FFD7
FFBB
0001
FFFA
FFEE
0010
0006
0005
FFFF
FFEE
000C
0003
FFEC
FFEE
0019
FFED
0004
FFFF
FFF5
000D
0005
FFCA
FFF9
000F
FFE2
FFFD
0013
FFEF
FFF5
0000
FFEE
0010
FFC0
0006
FFCA
FFEC
000B
0000
0001
0010
0004
FFF0
FFFF
FFF1
0011
FFF1
0000
FFE0
000E
0003
FFF6
000F
0025
0011
002C
0009
0010
FFD3
FFF5
FFEF
0006
0000
FFF9
0009
FFF1
FFDA
0015
FFEC
0005
FFFE
0004
FFF9
0005
0021
FFFC
FFED
FFFF
FFDF
000F
0009
FFF3
FFF2
0005
0011
000D
FFED
0012
FFD7
000E
FFF7
0013
FFE9
FFFE
0002
FFF1
FFF7
FFEA
FFF7
0000
FFF6
FFF2
0013
FFFF
FFF5
000F
FFF9
FFF3
0009
0010
0005
0012
0008
FFED
0010
FFFE
000C
000C
000A
001B
FFF7
0004
FFFB
0001
0001
FFEA
FFFC
FFEA
000A
FFD2
FFF6
0011
0007
FFF3
0006
0010
FFF4
000E
000E
0008
000E
0005
FFF3
FFFA
FFEE
0000
FFF2
FFED
FFFF
FFEB
FFF7
0010
FFEF
FFFA
0003
0015
FFF9
0006
0008
FFF2
0010
FFF7
000C
FFEC
FFF3
FFF0
000E
000F
000E
000B
0003
0002
000A
0009
0012
FFED
0006
000C
FFFF
0013
FFE9
0010
FFF4
FFFF
0006
0008
FFFF
FFFE
000E
000B
FFF1
FFEF
FFF9
FFD8
FFF1
0014
FFF8
FFFB
0011
FFFE
000A
000D
000D
000F
0015
0001
FFF6
FFFB
0000
FFF1
000F
0002
0001
0003
FFF4
FFEC
0001
000A
000C
FFF0
000B
000A
000B
0015
0005
FFEE
FFFC
0010
0008
FFFE
000C
0004
0014
FFF1
FFF3
FFF7
0002
0007
000C
FFF8
0009
FFF6
FFFD
FFFE
0008
0001
0006
0000
FFF7
000E
0004
FFEC
FFF6
0015
FFFC
000E
0004
FFFA
FFF0
FFFB
0008
0009
FFF4
FFFA
0001
0000
0010
FFF2
0006
0009
FFFA
FFF9
FFF1
FFF8
0000
0001
000D
0006
001B
FFEF
FFFB
0000
000A
FFF1
000D
FFF6
0008
FFFF
000F
FFFD
FFF4
FFF4
0014
0000
FFFF
0002
FFFF
FFEE
FFEE
000F
0007
0010
000E
000F
FFED
FFF9
FFF2
0000
FFF4
FFED
FFF6
FFF7
FFEC
0000
FFEE
0003
FFF7
FFFE
0033
0005
0013
000B
0013
FFF1
FFF4
FFF7
FFFF
000F
000D
0009
0015
000B
000F
FFF2
FFF6
FFF7
0014
0008
0015
FFFE
000B
000F
0034
000D
000F
0011
FFEB
0000
0010
0008
FFD9
FFEF
0012
FFF2
000A
0001
FFF8
FFF6
0002
0005
0014
FFFC
0004
0001
FFF6
FFF2
0012
0009
0038
FFFB
0012
FFF6
000E
FFFD
FFEA
FFFD
000B
FFF6
FFD5
0007
0010
FFE8
0014
0015
0005
FFE4
0000
001C
0015
FFF4
FFF0
0007
0005
FFDD
0001
0015
0010
001E
FFF5
FFED
0004
FFF6
0012
0005
FFEC
FFFE
001C
000C
0002
000C
0004
0000
0011
FFF6
FFE4
FFEE
FFF3
FFF9
FFF4
FFE0
FFFE
0008
0008
0001
FFF9
0033
0006
000F
0004
0005
0013
0000
0043
0000
0002
FFF2
FFF3
000F
0005
FFF0
0000
FFEA
FFEF
000A
0000
FFE9
0000
002C
0003
FFE6
FFF2
FFFA
FFFD
FFFB
0008
0000
FFF2
0004
0023
0016
FFFF
000C
000C
0003
000E
0000
0014
000F
FFEC
FFF5
002F
0011
0000
0018
0019
FFF1
FFED
FFF6
001E
FFEE
FFF6
0000
FFF6
FFBC
000A
FFFC
000D
FFF2
FFFC
0042
FFEE
FFF8
001B
FFFF
FFE7
FFF1
0031
FFF4
0000
0015
FFF9
FFF8
0002
0001
0007
000F
0013
FFF6
FFF4
FFF0
FFE9
0006
0004
0015
000F
0005
FFFE
FFF3
FFF4
FFFF
FFF1
FFF3
FFE4
FFCC
FFE5
0011
0007
FFE7
0005
0006
FFEE
0019
FFF1
FFF5
FFD4
0005
0000
0012
FFF3
0002
FFF3
FFF7
FFEA
0002
0008
000C
FFF7
0009
0007
0013
FFF0
0000
0000
003C
FFF9
FFFE
FFFF
000E
FFFB
FFFC
001F
000B
0009
FFF3
FFF1
FFF9
FFE1
FFF3
000C
000D
FFDB
FFFF
000E
0012
FFF7
000C
000A
FFE1
FFEE
0004
FFF7
FFFB
FFE9
0005
FFF2
0001
FFE9
FFD6
000C
FFF5
000C
FFEB
FFF7
FFE5
000D
001B
FFFF
000B
FFFC
0004
FFDA
0010
FFF7
0007
FFDA
000C
FFEC
0009
000F
FFF0
0027
FFC7
0003
000A
FFF5
0000
0008
FFF6
0001
0015
FFF0
FFF6
FFF9
FFF0
0017
FFEC
0015
FFFA
0012
FFF8
FFCB
FFCA
0006
FFF4
FFDB
FFEE
0007
000B
FFEA
0029
FFE5
FFF1
FFF7
0000
FFFB
FFF6
FFF7
FFE5
FFFA
000F
FFF8
FFE7
FFEA
FFF2
0009
FFF1
0004
0003
FFED
FFFD
FFF4
FFED
0008
0009
FFDF
FFE2
FFFE
FFF7
FFED
0000
000E
FFF0
0005
FFF8
000C
FFE7
000D
FFEE
0009
000F
FFF0
0007
FFFD
0009
0004
FFFD
0000
0008
0013
0006
FFFA
0008
FFF7
0007
FFF6
FFD4
0000
000C
0004
FFED
000D
0019
0003
0028
FFE7
FFE6
0025
FFFF
FFE2
0004
FFED
FFF9
0000
001A
FFF6
FFE5
0008
FFED
FFFF
000A
FFF3
FFFE
0000
0008
000A
FFF7
0014
0001
FFEE
000E
FFFA
FFFB
FFD4
FFE9
FFFB
000B
FFF8
FFD8
FFFA
FFFD
0003
FFEF
0007
000E
0011
0008
FFF6
0016
000A
FFFC
FFED
0004
0027
0001
0015
0007
0004
FFEF
FFC4
FFD1
0007
0016
0016
FFF9
FFFE
0000
0006
0009
FFE9
FFFB
0001
FFFE
FFE4
0006
000F
FFFA
FFFA
FFF1
FFEF
FFE9
FFF8
FFFC
FFF9
000F
FFE8
FFEE
0006
FFFC
FFFC
FFED
0010
FFFF
FFFB
FFF7
FFEF
FFF6
FFD7
FFF1
FFF2
000F
FFFF
000B
0014
FFF2
FFF0
FFF5
0008
0000
FFEE
FFEB
FFDE
000F
0008
000B
FFEF
FFEF
002A
0005
FFFE
FFFF
0009
FFF5
FFED
FFFB
000B
0012
FFE9
0014
FFFF
001D
FFFB
0013
FFF8
0019
FFD9
0004
FFF8
FFED
FFF1
0000
0006
0008
FFE0
FFFE
FFFF
FFF0
FFF4
FFF6
FFEB
0004
FFE9
000C
FFE7
000B
0000
0005
FFBF
FFF9
FFE8
FFF7
FFF7
FFF0
FFE7
0007
FFE1
0000
FFF4
FFE4
FFEA
FFFF
FFEE
FFE8
0000
FFB9
FFE0
0005
FFFB
0003
0018
FFF9
0019
FFED
FFFB
0012
0009
FFED
FFC8
0002
000C
FFEB
FFFE
000B
FFF2
0005
000C
001F
FFEA
0011
000C
0003
FFEA
0001
FFF7
FFEE
FFEB
0003
FFE3
FFD9
FFEE
FFF7
FFF3
FFFF
FFF5
FFF6
FFDF
0007
0006
FFEF
000C
0004
FFE4
FFEE
FFF5
FFF0
0010
FFF7
0007
FFFC
FFF4
0025
FFCA
FFFD
FFF4
FFF7
FFF8
FFF6
0004
0005
0001
0004
0000
FFFA
001A
0005
0002
FFEB
000E
FFFA
0001
FFE5
FFF4
0013
FFF9
FFFE
000F
FFEB
0001
FFE4
FFFE
FFFF
FFED
0006
FFFB
000A
0010
FFF2
0003
FFF7
0003
0009
FFF7
FFF6
0007
FFE7
FFEB
0007
0009
0010
FFF4
FFF1
0004
FFFF
0001
FFEF
000C
FFD7
FFF9
FFE7
0000
000A
0009
0002
FFE9
0011
FFDD
FFF6
FFFC
0006
FFFD
FFF1
FFFF
0013
FFF7
FFE6
FFEA
000D
001D
FFF6
0004
FFF2
0004
FFF3
FFFB
FFE0
000E
FFF2
FFFF
0003
0006
0000
000D
FFE5
0001
0000
FFF6
000A
FFF8
000F
000C
FFEA
000C
FFEA
FFFC
0000
000F
FFF2
FFF8
FFF7
FFDC
FFF0
FFFA
FFF1
FFFD
FFE0
FFFB
FFE0
FFED
FFEF
000A
FFFF
FFEC
FFE9
FFED
FFFB
FFF4
FFF5
FFEF
0005
FFE6
FFDA
0003
FFFE
FFFF
FFE6
0011
FFF4
0000
000B
FFF7
0005
0009
0007
0014
FFF4
0006
FFFF
FFF6
FFCA
FFF2
0007
FFFD
FFE3
0008
FFF3
FFFF
FFAF
0012
FFFC
FFF5
0014
0013
FFF9
FFFF
FFEF
0008
0007
0011
0002
FFFD
FFFD
FFFB
FFE0
FFDD
FFFE
FFEC
FFE7
FFF2
FFFA
FFF0
FFF5
FFF9
FFFC
FFF9
FFE6
FFF4
FFFC
FFE0
FFEA
FFFD
FFF1
FFFC
FFF0
FFD9
FFFA
FFE1
FFEB
FFFF
FFED
FFEE
0004
0013
FFF2
FFED
FFFC
0005
FFFD
000A
FFEE
FFEB
FFE9
FFEB
FFD2
0006
0009
FFFC
FFFF
000D
0009
FFFE
FF6D
FFF7
FFF6
0000
0003
0008
FFF0
0014
FFF1
FFED
FFE8
FFFA
0002
FFFB
FFDD
0003
FFFF
FFF6
0003
0001
FFFC
FFF4
FFE6
FFF9
0002
0002
FFFF
FFE7
FFD3
FFF5
0002
FFE6
0003
0009
000E
FFF3
FFEA
FFF7
FFFC
FFF8
0000
FFFC
FFFD
0006
FFEC
0000
FFF2
FFE3
FFE6
0018
000C
FFF4
FFF7
000B
FFE8
0003
FFEE
FFED
FFEE
0004
FFF6
000D
FFF9
0011
FFB2
0010
0000
FFF4
FFFF
0001
FFF4
FFEC
FFF2
0009
FFCD
FFED
000F
FFF0
FFFF
0015
FFEB
FFFA
FFFF
FFF9
FFF9
0009
FFFF
0007
FFFE
FFFC
0002
FFE0
FFE3
FFE9
FFF6
FFE5
0002
FFFA
0011
0000
FFD7
0005
FFEB
FFD9
0002
FFFB
FFE0
FFF2
FFE0
FFF1
FFE7
FFDD
0007
FFFD
0004
0005
FFF3
FFE3
FFED
0009
FFEB
FFEF
FFFB
0013
000C
0010
FFF4
FFEF
FFF5
000A
0003
FFEE
000A
0003
FFED
FFFE
FFF9
000C
FFE1
FFF8
000A
FFF4
FFF2
FFEE
FFF2
FFEB
FFF5
000A
FFF0
0003
FFE7
FFF4
FFF2
0004
000F
FFF5
FFF6
0007
FFF7
FFDB
FFF3
FFFD
0002
FFED
FFEF
FFF3
0002
FFF8
FFF2
0007
0002
0008
FFFE
0004
FFE7
FFE6
FFF8
FFFE
0001
0010
FFEA
FFFF
FFF4
FFF1
FFE4
FFF4
FFEA
FFF5
FFFA
0022
000B
0001
FFFE
0001
0004
FFF4
0000
0000
FFE6
FFE6
0007
0007
FFE5
FFF3
0025
FFF4
FFE4
0000
0009
FFEB
000F
0011
0004
FFEC
0014
FFFA
FFF0
FFFB
0003
FFD7
FFE9
FFEC
FFFC
FFF6
FFF3
FFF7
000E
0005
0001
000B
FFEC
FFF0
FFF3
000D
0010
FFF4
0011
FFED
FFF6
FFB7
000D
0007
FFF9
0006
FFF0
FFE5
0000
FFFF
000D
FFFC
FFEC
FFF0
0005
0021
000D
FFFB
0018
000A
FFFB
FFFA
FFFF
FFFC
FFE6
FFFB
0005
FFF3
FFF6
FFF8
0018
0003
FFD7
FFE8
FFFD
000A
0001
FFF8
FFE6
FFF7
FFF7
FFEC
FFFC
FFFD
0002
FFDB
0000
0002
FFE7
FFED
FFF6
000B
FFED
000A
FFEF
0020
FFFC
FFE6
0002
FFF8
0005
FFED
0001
000D
0002
FFD4
FFE7
FFF1
FFED
FFF7
000B
FFE9
FFE6
FFF6
0009
FFE2
0018
FFF5
FFFB
FFF7
0008
FFF9
000B
FFF3
0006
FFEC
FFF5
FFF9
FFEF
FFE5
000C
FFF3
FFF6
FFF8
002F
FFF1
FFE8
FFFD
000A
000D
0019
0011
FFE9
FFEF
FFF4
FFF3
0004
FFF3
000A
FFF8
000C
FFF3
FFEC
FFFF
FFED
0001
FFEC
FFF2
FFF9
FFFD
0014
FFF9
FFE7
FFF9
FFFA
000C
0006
FFF4
FFF4
FFC8
FFEE
FFE8
FFF2
FFD1
FFFA
FFF8
0003
0008
FFE7
FFB2
0009
FFF7
000B
FFF8
FFEC
000C
FFFA
0001
FFFC
FFEA
0008
FFEC
FFF4
FFE7
FFF7
0011
FFF6
0004
000F
001D
FFE9
FFFC
000B
0026
FFF8
000E
FFEC
FFE6
000E
000A
FFF8
FFF4
000F
FFF1
0026
FFF0
FFF5
FFFB
0002
FFF2
FFED
FFF7
0008
0009
0002
FFEC
FFFF
0006
FFE9
FFF7
FFFD
FFFC
FFEE
FFEC
FFF4
FFD2
FFFA
FFBA
0005
FFF0
000A
0013
FFE5
FFFD
0014
0006
0011
000A
FFF8
FFE8
FFFA
000F
FFF0
FFE7
FFED
FFF8
000F
0004
FFFC
0003
FFF3
FFF1
0016
0019
0009
FFF6
000A
000C
000F
FFE7
FFFD
0008
FFFB
FFF7
0000
0000
FFED
0014
0028
FFF3
FFFA
0008
FFEB
FFF8
0006
0009
000C
FFF3
FFFC
FFFA
FFF8
FFF3
0005
FFF1
FFEE
FFFE
FFEE
FFD7
FFE7
FFF4
FFF3
FFE2
FFEE
FFF7
FFFA
FFEA
001C
FFE5
0016
FFED
0000
FFE6
FFF4
000A
0009
000D
FFF9
FFF6
0004
0033
000D
FFF0
FFF2
FFFB
FFF6
0007
001C
0012
FFF8
FFE8
FFFF
0017
0009
FFFD
0016
000E
FFFF
0008
FFEB
FFED
0003
0011
0019
0008
0002
0008
0005
0019
FFEF
0011
FFFF
FFDE
FFF8
FFD6
FFED
FFF6
FFE8
FFF7
FFFC
0000
0008
FFC8
FFFD
FFE5
0002
FFDF
FFEE
000A
0005
0008
FFDE
FFFD
0003
0010
0003
FFD5
FFFC
0006
0025
FFE8
FFFF
FFF3
FFEF
000F
FFFF
0002
FFFF
0002
FFDF
FFF3
0035
FFF9
0005
FFEE
0003
FFF6
FFF7
0000
FFF5
0001
FFFA
FFEE
FFFE
FFB9
0002
FFF0
FFFB
0004
FFF8
FFF1
0011
FFED
FFEE
000F
FFE6
FFE8
FFF0
FFE6
0007
0013
000E
0000
0002
0000
FFEE
FFFB
0008
FFFD
000A
FFFC
FFFF
FFF6
0011
FFF2
FFEE
FFFD
0015
0006
0012
FFD5
0006
FFE9
FFFB
FFD3
FFF4
000A
FFFF
FFC3
FFF6
0000
000E
FFFE
0006
FFFC
0025
FFF1
FFEC
0007
FFEE
FFE4
FFFD
000F
FFF7
FFE9
FFEC
0005
0011
FFCB
0014
FFD9
FFF5
FFEB
FFF9
FFE2
FFF4
000A
000F
001C
FF91
FFEE
FFD9
FFED
000A
FFF7
0000
0010
FFEC
FFEB
FFF2
FFF4
0004
FFEC
FFFB
FFD8
FFF8
0007
000B
000D
001B
FFF0
0032
FFFC
0000
0000
FFF2
0010
0011
FFE9
FFE0
FFFD
FFC0
FFD4
0005
0002
0014
0003
0002
FFFE
0014
003B
0010
000D
0004
FFF4
FFF3
FFED
0010
FFED
FFFB
FFEC
FFF8
FFF3
0015
001A
FFDC
FFF1
FFF4
FFFC
0007
FFE5
FFEE
000D
FFEA
0011
FFDD
FFE4
FFF6
000F
0002
FFEC
FFEE
FFFB
0006
FFE9
FFFD
0008
0009
0001
0012
FFFB
FFEF
0009
0004
0017
0022
FFF9
000E
FFF2
0001
FFF0
000B
FFFA
FFF6
0010
FFF3
FFF9
001A
000C
FFFF
000B
FFF7
FFF3
0013
0011
FFFF
0000
FFF9
FFF7
0013
0010
FFF1
FFFD
0006
0008
FFEF
FFF1
FFEE
FFDF
0003
FFFB
FFFC
FFFB
0012
FFEF
FFF3
FFF0
0004
FFFB
FFFC
000D
FFFE
FFFF
FFF0
000B
000E
000A
FFEE
FFF1
000D
FFF9
0007
0007
0011
0010
FFEF
FFFE
0026
FFF3
0014
0004
FFEC
FFF6
0001
0006
0009
FFF9
FFF4
0009
FFF6
FFFF
0000
FFFD
FFFD
000B
FFF5
0014
FFF8
FFFD
0003
000E
0003
0015
0006
FFF8
0011
FFF3
FFFC
000C
000B
0010
FFF2
FFFE
0002
FFFE
0010
FFFA
0000
FFFC
FFFB
FFFF
000D
FFFE
0002
000B
0015
0001
FFED
000F
FFFD
FFFD
0000
0001
000D
0002
FFEC
FFFE
FFFE
0002
FFFC
0010
0007
FFF0
0002
FFFF
FFF8
FFF4
FFF7
0006
000F
FFF5
FFFA
000D
FFEB
0008
000B
FFF6
FFFD
FFF9
0000
FFF7
FFFC
FFFC
FFFD
FFEB
0004
000A
FFEE
0000
FFEE
0007
FFEF
0000
FFFE
0011
0011
000D
0016
0002
FFF8
FFED
FFF8
FFC6
FFF9
FFED
0027
0015
0001
000A
0014
0012
FFF9
0006
0000
0013
FFF0
FFF1
0003
FFF5
FFFB
0007
FFFE
000A
FFF4
0010
0001
000B
FFEA
FFEE
FFED
FFCA
FFFD
0015
0007
0043
000B
FFFB
0025
FFEF
FFF1
0004
0011
000C
FFFE
000D
0006
000E
0005
FFFA
FFFA
000B
0006
FFEF
FFF3
FFF9
0006
0003
FFF3
0003
0002
0000
0004
0014
FFEC
0011
0001
FFE2
0001
FFEF
0017
FFF3
0011
000B
0005
000C
FFF1
0004
0000
FFF4
FFEC
000B
FFFA
FFFF
FFF1
001D
0005
0006
FFFA
0001
FFFA
000D
0008
0010
000A
FFF7
000D
000A
0009
FFEB
0043
FFFD
FFF2
FFED
0015
FFF8
0015
FFFF
000D
0003
FFED
0003
FFFA
FFF4
000A
000C
0011
0007
0003
0005
FFFB
000B
FFEE
FFDC
000E
000C
000B
FFFC
0014
FFE9
0006
FFE0
000D
0007
001C
FFFA
0000
FFFA
FFFC
000A
0000
000F
004A
000A
FFF0
FFED
0003
FFD2
0001
001E
0007
0002
0013
FFF7
FFFD
001C
FFFF
0003
0012
FFE9
0014
FFF0
0001
FFE6
003A
FFF3
0012
0002
FFF0
FFF1
0002
000A
FFFE
FFEB
FFD7
FFF8
FFF7
0004
0008
FFF2
FFF2
FFFF
FFFB
FFFB
0009
FFF1
0005
001D
FFF1
FFF7
0016
0010
FFF4
FFE6
0003
0000
0004
FFFE
FFE3
FFFD
FFDC
000B
FFF1
FFF9
FFE4
FFEA
000B
000B
001A
000B
FFF3
FFE2
0004
0044
FFFE
FFEC
FFF7
0009
FFFC
FFE6
000B
0004
000A
FFD2
000F
0000
FFEE
0019
0018
FFFC
FFF9
FFFB
FFF9
000F
0011
FFF8
FFF5
FFF5
0000
FFEF
FFFF
0005
001A
FFF3
FFEE
FFFE
FFFE
0000
FFFE
000F
0007
0010
0011
FFF3
0001
FFFC
FFEE
0000
FFED
0019
FFFA
FFEE
FFEA
0013
FFC7
000C
0005
000A
0019
0009
FFFD
FFFA
0017
0013
0001
0000
FFEE
0026
0009
FFEA
0005
FFED
FFFD
FFF9
FFD7
FFF0
0016
FFC0
FFF6
000F
0030
0017
0011
FFF3
0009
FFF4
0014
0008
FFFE
FFEE
FFF9
0000
FFE1
0005
FFE4
0002
FFFF
FFF5
FFFA
FFFE
FFF8
0005
0005
FFF7
0002
000D
FFE7
FFF9
000E
0009
FFE6
FFDD
FFF6
FFE7
000C
FFF6
0000
0007
FFCD
FFEF
0012
FFF7
001A
0007
0032
0009
FFFB
FFF3
000C
FFC6
FFF6
0016
FFEF
000B
000F
0000
0003
FFC7
FFBC
000D
000E
FFF3
0009
000D
0012
FFFD
001B
FFE2
FFF9
0009
FFFD
FFF4
FFE9
FFFA
FFDA
0010
0001
FFDE
FFF3
FFFB
FFFE
FFF1
FFF2
FFEB
FFEC
FFFF
0001
FFFB
FFF9
0011
000C
000A
0002
000D
0001
FFE7
FFF5
FFF7
FFF8
FFEF
FFE9
FFFA
0000
0000
FFE8
0008
000F
0013
003C
FFFB
0011
FFFA
FFED
FFDC
FFFE
000D
FFFC
0014
0004
FFFF
FFE4
FFF6
FFF7
0008
FFF0
FFE1
FFEC
FFF8
FFF9
FFFE
0029
FFFD
0005
001B
000B
FFE2
FFF2
0003
FFED
0004
000E
FFDF
FFD9
0009
0006
FFF5
0000
0006
FFEE
FFF1
0003
0005
000B
000B
0009
0015
FFE6
0010
0000
FFDC
000A
0012
0009
000B
FFF4
FFEF
FFF4
0002
FFFE
FFFE
0002
FFFB
0008
0003
FFFB
FFFD
FFF9
FFF6
FFFC
0004
0006
FFFD
FFEF
0005
FFE4
FFCF
FFF8
0002
0006
FFF4
FFF0
0000
0005
FFFD
FFFE
FFE8
0006
FFCC
000E
FFF5
000D
FFFE
FFE8
FFF7
000D
FFFA
FFDB
FFF8
FFEF
FFE4
000B
0003
0000
0002
FFF9
0003
FFFB
0004
0009
FFE8
FFFD
FFEB
0012
FFE7
FFF4
0002
0000
FFE8
000C
FFF9
FFF3
FFE9
000C
FFFF
FFF6
FFEC
001F
0004
0007
FFF8
0011
000F
FFFE
0003
000C
FFF4
FFE9
FFF2
FFED
FFDF
0013
0005
0013
0007
0000
0011
000A
FFFF
0031
FFFD
FFF7
0003
0007
FFFB
FFE9
0013
FFF9
FFF6
0005
FFF0
FFE4
FFF2
FFEF
FFF1
FFE7
FFF8
FFE8
FFF3
0003
FFEB
0001
FFFC
000E
FFD7
FFE7
FFF6
FFFF
003F
FFF7
0000
FFF3
FFF0
0011
0001
FFFF
FFF0
FFF0
FFF8
000B
0009
FFFF
FFFC
FFEC
0007
0008
001C
FFFA
FFFE
000A
FFE5
FFEB
FFEF
FFD6
FFDD
0011
FFFE
FFEE
0002
FFFC
000D
0008
FFFC
0000
FFF4
0000
0008
FFF3
0004
0000
FFEF
FFF0
0000
0019
001E
FFEB
FFFC
000D
FFF8
FFF6
0009
FFF9
FFF0
0001
FFFA
FFE0
000E
FFE8
FFEA
FFEC
000E
0001
0019
FFF5
0000
FFFC
FFFC
001E
FFF9
FFFA
FFE8
000C
FFF1
FFDD
0004
FFFE
0003
0006
0016
FFF6
0008
FFFC
FFFD
0000
FFFD
FFEB
000F
FFCB
0008
FFFF
FFFA
000A
0002
FFE7
0006
000C
FFFB
FFFD
FFDF
FFFF
0013
000C
0000
0002
000C
FFFE
0010
FFFA
0009
FFEC
FFFB
FFE7
0005
FFEF
FFF5
0008
FFDB
000D
0009
FFF1
FFDB
0012
FFF3
FFF2
0000
FFEA
0001
000A
FFED
FFFB
FFFF
FFFA
FFDC
FFE7
000A
000C
FFF6
0007
FFEF
FFFA
FFEB
0004
0002
FFE5
0018
FFFF
FFEB
FFF9
FFEF
FFF6
FFF3
FFD5
000B
FFF3
0002
0000
0018
0009
0003
0003
FFFD
FFFC
FFF1
000B
FFE8
0009
FFEF
0002
FFF6
0004
0002
FFF9
FFFC
FFE1
0003
FFF5
FFD3
0004
FFFD
FFF5
FFE2
FFF3
FFF1
FFFB
FFEB
FFF6
000E
FFE6
FFE9
FFEF
0004
FFFD
0008
0000
000C
0019
FFEE
FFE0
0005
0001
0010
FFF9
FFF1
FFED
FFFF
FFE8
FFF9
FFEC
FFFD
0003
0000
FFF6
0008
FFE4
FFFA
FFE6
FFF8
000C
FFF5
0004
0005
FFF0
FFEE
FFCD
0008
0019
FFF1
0014
FFFA
FFFE
FFFB
FFF9
0004
FFF9
FFFA
FFFE
FFF5
FFE6
FFEF
FFE1
FFE5
0006
FFEB
FFF1
FFFB
FFE7
FFF0
FFE5
FFEC
FFF7
FFF3
FFF0
0000
000B
FFFA
000C
FFEA
FFF7
000B
FFF7
FFFE
FFFD
FFFD
FFEA
FFFD
FFFF
FFF4
FFEF
FFF9
FFEF
FFFE
0009
0004
0005
FFFE
FFE9
000F
FFF8
0003
FFF4
0000
FFF6
000B
0003
0006
0010
FFF5
FF66
0009
FFEB
FFFF
0006
FFFA
0013
0006
0000
FFF1
FFD9
FFEF
000D
FFF8
FFFA
0013
FFD8
FFCD
FFEE
FFE9
FFEE
000E
FFF3
FFFE
FFF6
FFF2
0000
FFEA
0002
FFED
FFFE
FFE8
0008
FFF7
FFF0
FFFB
FFF5
FFE6
FFEB
FFDD
FFF6
000A
FFD9
FFE7
FFD7
FFFE
0002
FFE2
FFF8
FFF8
0000
FFF0
FFF7
0000
FFF0
FFEA
FFE0
0014
0004
0010
FFF9
0006
0008
FFF2
FFC2
FFFF
FFFB
FFF2
FFF6
0007
0004
FFFB
FFFD
FFFE
FFE1
000D
0008
FFDE
FFED
FFEE
FFE4
FFDF
FFFD
FFFD
FFEF
FFEE
FFED
000A
0014
FFED
000A
FFE6
0002
0000
FFEA
FFF6
FFF2
FFFF
000A
FFF5
0005
FFF6
FFD3
FFF1
FFFF
FFF5
FFE3
FFFA
FFEC
FFF6
FFF8
FFC1
FFED
FFFA
FFED
0010
FFF5
0004
FFFA
0012
0000
FFFB
FFFE
FFEF
0000
0022
FFFC
FFEB
000C
0001
FFF5
FFDE
0010
000C
FFF2
FFF4
FFF7
FFE5
FFC4
FFFD
001C
FFE4
FFFE
FFFD
FFEE
FFF6
000D
FFF1
FFE2
FFF9
0001
FFFC
FFEA
0008
FFF5
0000
FFF4
0000
FFF7
FFCD
0007
FFF3
0005
FFEF
0009
FFF5
FFE7
0002
0004
000D
0001
FFF2
0000
FFFC
FFE8
FFB8
000B
FFEC
0011
0007
0003
0008
FFF4
0010
000C
0006
0016
FFF8
FFF5
0005
000B
000D
FFFE
0006
000F
FFF8
0004
0011
FFF3
0000
FFFC
FFF5
FFD5
000B
0023
FFE5
FFF3
0009
FFFD
0001
FFE9
0000
FFD7
FFEA
FFF3
0012
0004
FFDE
FFEA
FFE4
0017
FFF9
FFF2
FFEF
FFF4
000D
FFF9
FFF1
FFF5
0001
FFF7
FFED
0003
0003
FFFF
000F
0006
FFF5
0000
FFA5
0001
FFE7
000B
000B
FFF8
FFF7
000A
FFEF
FFF9
FFF8
0019
0008
000B
0008
FFFF
0002
0018
FFF7
FFF6
FFEB
000D
001D
FFF1
0009
FFED
FFE9
FFD7
0004
0017
FFE9
FFE9
FFEE
FFEC
0016
FFF7
0000
FFEC
FFFF
FFF9
FFF0
FFF1
0003
FFFC
FFEA
0026
FFFC
FFDF
FFDB
FFF9
FFF6
FFFC
0003
FFF9
0009
FFF9
FFE9
FFF7
0001
FFFB
FFFA
000D
000D
FFE3
FFC5
FFF5
FFFB
FFF4
000D
FFEF
000B
FFED
FFEE
0000
FFFC
000D
000F
0004
FFF6
FFE9
000E
0010
0007
000F
000B
0012
001B
FFF6
FFFB
000E
FFF2
FFE3
FFF8
0028
0003
FFD8
FFF5
FFF5
FFF3
FFF7
0011
FFFE
0001
FFE7
0000
FFF1
FFF6
FFEE
FFF0
0002
FFF6
FFE9
0009
FFF3
FFF7
FFF2
000B
FFF6
FFEC
FFF7
FFE0
000F
FFEC
FFFB
FFFA
0007
FFF9
0002
FFE3
FFFC
FFE7
FFF9
FFF2
0001
0000
FFE8
FFED
000D
FFD7
0007
FFEA
FFFC
FFFB
0004
FFF3
0019
FFFD
000D
FFEE
FFE5
FFF8
FFF1
FFF5
FFE9
0006
FFFB
000F
0005
0003
FFDA
FFFF
0007
001A
FFF9
0011
FFF9
FFF8
FFFF
0005
0006
FFF7
FFFA
000A
0006
0009
FFFC
FFF8
FFF0
000C
0008
0011
FFEC
FFF4
0003
FFF1
FFEE
FFFB
0012
0001
FFF0
FFFB
FFE4
FFCD
0000
FFEC
FFFF
FFDB
0001
FFE7
FFEE
FFF4
FFFD
FFF5
000D
000C
0002
0005
FFF2
0006
000D
FFF1
0004
FFF4
000A
0001
000A
0000
FFF1
0000
0002
000B
0012
001D
FFE4
FFF3
FFFF
0018
FFF7
FFE2
000B
FFFE
0011
FFF9
FFEE
0012
FFF3
FFFE
002B
FFEA
0011
0007
FFFE
0011
0006
000D
000D
0000
001D
FFDD
FFF7
FFEF
000A
FFFF
FFF0
000C
000B
FFCC
0007
FFED
FFF3
FFBB
0010
FFFE
0004
0009
FFEA
FFF2
001A
0000
000C
0008
FFF1
FFEC
0010
FFF9
0003
0000
0000
FFCD
0006
0004
0003
000E
FFFE
FFEF
0001
0017
FFFD
0001
0006
0007
FFF2
FFF3
FFF7
FFF5
FFF3
FFEE
0005
FFC1
FFE9
0015
0008
0009
0004
FFED
FFEA
0014
000C
0003
002D
FFFD
FFF0
FFD8
FFF7
FFED
FFF2
FFED
0014
0006
FFF2
FFAC
FFFA
FFE2
0010
FFC6
FFF6
0008
0007
FFF2
FFE2
FFED
002E
0002
0007
0000
FFEE
000B
000E
FFD6
001D
000F
0003
FFF5
FFEE
FFF1
FFFB
0002
FFF4
0010
0007
FFFF
0007
FFFD
0002
000A
FFF3
0003
FFED
FFF7
0010
0003
0000
FFA9
FFED
0000
FFF5
0000
0017
FFFC
0010
0003
000E
0000
FFE7
0000
0019
FFFF
FFE8
0013
FFED
FFEF
FFE8
FFE7
FFE9
FFB6
0001
FFCB
0002
FFCB
000B
0009
FFF7
FFEA
FFDF
FFE7
0020
FFEE
FFEE
FFE5
0000
FFF3
0004
FFC7
000F
000E
FFE5
FFF1
000F
000C
0002
0007
FFF2
FFF9
0050
0012
000F
0006
FFFD
FFE6
0007
FFFB
FFF3
0000
0005
0009
FFF5
FFD8
0004
0001
FFEA
FFEE
FFFF
FFFB
0001
FFE4
000A
FFF9
FFD1
FFFF
FFD1
000B
0005
FFEE
FFFA
000A
0010
FFFA
FFFF
0000
FFEE
0012
0016
FFF5
FFF5
FFFE
FFFF
0000
FFF9
FFEB
0040
FFEE
FFF5
FFCA
FFF1
FFFD
FFF3
FFF6
FFEA
FFF9
FFD5
FFDA
FFFF
0014
0006
0017
000C
FFFF
0028
0014
000A
0009
FFF9
0011
0015
FFEC
FFF0
000A
FFF8
0011
000C
0009
FFED
001B
FFF1
FFF2
FFFB
FFEF
000D
FFE0
FFFA
FFFF
000E
0008
0004
FFF4
0002
0003
FFFD
FFF2
FFE0
FFF6
0000
FFEB
000F
0013
0004
FFFE
FFEB
FFF7
0004
FFED
FFFA
0015
002A
0005
0007
000D
0000
FFEE
0013
FFE9
FFF5
FFF3
000A
FFD5
0000
0000
0000
0008
0007
FFFF
0009
0018
000D
FFFB
0004
0012
0000
FFEF
000A
000C
0006
0011
0001
0004
FFF7
FFE3
0008
0004
000C
FFF5
FFFC
FFE9
000E
FFFC
FFF5
FFED
FFE6
0002
000E
FFF1
000F
0011
0006
0016
FFFF
FFF2
FFF5
FFF4
000E
FFEB
FFF9
FFF7
000A
0008
0013
0003
001C
0015
FFFB
0007
0010
FFEE
FFF9
0008
0005
000B
FFFD
0012
FFFB
0004
FFF1
0005
000B
FFEE
FFFA
000B
FFFA
FFF7
0015
000A
FFFF
FFEB
FFF6
FFFE
0000
000C
FFF9
0014
0001
FFF5
FFFC
FFF3
000F
0012
FFF0
FFF0
FFEF
0014
FFFA
000D
000E
FFF3
0012
000B
FFFC
0005
FFF0
0008
FFFB
0009
FFFA
0001
FFED
000A
0008
0007
FFF3
000C
FFFB
FFEC
FFED
000E
FFFA
FFE4
FFEE
FFF4
FFEB
000C
FFEE
0002
FFFF
FFF7
FFFB
0003
FFFF
FFFE
FFFF
FFF9
FFEC
0012
0014
FFFD
FFEC
FFF5
FFF1
0011
0002
FFFC
0001
000C
FFEC
001B
FFF5
FFC8
FFF1
000C
FFFF
FFED
0010
FFC8
0013
0008
0038
FFFC
FFFC
000E
000F
000D
0009
000B
0029
FFEE
FFF2
FFF0
FFFD
0018
000F
000E
000F
FFF4
FFF9
0008
0004
0003
000B
0015
000B
0019
FFEB
FFFF
0013
FFFA
000D
FFF2
001B
FFFE
000A
0003
FFFE
0002
0007
000C
FFF2
0005
FFF9
FFF7
FFF0
FFF5
0007
FFFA
0000
FFEF
FFFF
FFEF
FFF9
FFF6
FFEF
0001
FFF8
FFF3
FFF9
000E
FFF8
FFD5
0000
FFF3
000D
0014
0011
0001
FFF2
FFF8
0010
FFFA
0026
FFFF
FFEB
0006
FFF1
FFF6
FFF0
003F
FFED
FFEF
FFF0
FFEF
FFFB
0008
000D
0000
FFF1
0012
FFF6
0013
0022
0002
0031
FFFC
0017
002B
FFFA
FFF6
000E
0000
0007
000A
FFEB
0015
0014
0001
FFF8
FFFD
FFFE
FFF2
FFEC
000C
0001
000C
FFF1
FFD7
FFF2
FFF7
0005
FFFE
FFEE
FFF1
000E
FFFE
FFFC
FFF5
FFFA
FFEB
FFF4
FFF8
0005
0009
FFF1
FFEC
001B
0010
000A
FFEE
000B
FFF1
FFEA
000D
FFFB
000A
FFEC
FFF9
0008
0011
FFF5
000D
000E
002D
0003
FFFF
0007
FFF8
001E
0000
001A
002C
0017
0006
FFEE
FFF7
FFF1
0000
FFC6
FFFA
FFF7
FFED
FFF8
0002
0001
FFF1
FFFF
0005
FFEF
000F
0000
FFF8
0000
FFD8
FFEB
0001
000D
FFF9
FFEA
000D
FFF0
FFF0
FFF2
FFEB
FFC1
FFEF
0010
FFFA
FFF4
0000
001F
FFE4
0010
0006
FFF1
0006
0000
000A
0012
000C
FFFA
FFF6
000F
0006
0001
0004
0019
0012
0000
0001
0013
0025
0018
FFEC
001E
FFEA
0010
FFEC
0008
FFFB
FFFD
0004
FFEA
FFE9
FFDC
FFFD
FFFE
FFE7
FFFF
FFEB
000B
000B
000E
0004
0007
FFE0
0003
FFDE
FFF1
FFF9
FFEF
FFFE
FFFE
FFFC
0011
0007
FFF9
FFF6
FFC3
0009
FFF1
FFEC
FFFB
0008
FFE8
FFE4
FFF5
0000
FFF7
FFD5
FFE9
000B
FFF0
0004
FFF6
0002
0001
FFB1
FFFA
FFEA
0018
FFFF
FFF2
FFE9
001A
FFFA
001A
0012
FFFB
000D
0001
000F
0009
0007
0007
000E
0003
0010
FFFC
0003
0001
0009
000C
FFE9
FFFC
FFF5
0002
0001
0008
0003
0000
FFEC
0004
000C
0009
FFFD
FFE9
0003
0001
FFFD
0002
FFFB
FFF9
FFF3
FFEC
FFF8
0012
FFF3
0009
FFE6
FFEC
0005
FFFE
FFE2
FFFD
FFFD
FFF8
0005
000B
0000
FFFB
FFCE
FFE1
0006
FFFC
0000
FFE4
FFFA
0004
0000
0004
FFFC
FFEB
0014
0004
FFF8
FFEE
0007
FFD9
FFFE
FFE2
0000
FFE4
FFE5
FFF9
FFF4
FFFF
FFEF
FFF1
0001
0010
FFEA
FFFA
FFF2
FFED
0028
FFFA
FFF4
0003
FFE7
FFEE
FFFE
FFFE
FFEC
FFFB
FFEB
FFDF
FFF8
0012
FFF8
0000
000C
0001
0000
0000
FFF1
0011
FFF0
FFFC
FFFA
FFFB
FFFD
0002
FFEC
FFF3
FFF0
FFF6
0009
0004
FFF6
FFF5
FFF5
FFFF
001E
0025
FFED
FFFD
FFF2
000E
000C
FFF9
FFFA
FFFD
0005
FFF6
FFEA
FFFE
0007
FFF4
FFEC
0006
FFF3
0001
FFE7
FFF5
FFFF
FFFC
FFE5
FFE7
FFF5
FFE7
FFEE
FFF0
FFE0
0007
FFF7
000A
FFFE
0004
FFCE
FFE9
FFF3
FFFE
0006
FFE2
FFEE
0000
FFF6
FFFF
0006
0000
FFF1
FFF9
FFF3
0003
0000
FFE3
0001
0001
FFE9
FFFB
000A
0008
000A
0000
000C
FFF2
000F
002B
FFE9
FFF4
0000
FFFF
0001
FFE0
0015
FFE5
0010
0002
FFFA
FFF5
FFF9
0002
FFEF
0011
0007
0005
FFE6
0001
FFFA
FFFC
FFF7
000A
0006
FFE1
000A
0009
000C
FFF3
0006
0000
0002
0023
FFE7
FFFB
FFE6
0000
000C
FFDC
FFE8
000E
FFF7
FFFF
0014
0005
FFDE
FFF8
FFD6
FFF6
FFEE
FFF5
FFEB
FFE1
FFE2
0011
FFFF
FFEE
0001
FFE3
000C
0000
0004
0022
0004
FFFC
FFF8
0003
000A
FFE4
FFEF
0004
FFFD
0000
0005
FFD5
FFF8
FFFE
FFE5
000C
0012
FFFA
FFE3
0001
FFF6
FFF2
0019
FFFE
FFDE
FFF9
FFFF
FFF0
001F
FFF5
0007
0004
0001
000F
FFE7
FFF4
FFEE
FFF9
FFF9
FFDC
FFF1
002B
FFE6
FFE5
FFF8
0011
FFF0
FFEF
FFEA
FFEC
0000
0001
FFFD
FFE6
FFDE
FFF3
0015
0002
0006
FFE5
FFE6
0015
000B
0005
FFE9
0011
0014
FFF1
0000
FFE3
000B
FFFB
FFFD
0016
FFF6
FFE9
0002
FFFD
0003
FFFD
FFE8
0013
FFEB
FFDB
0009
FFEB
0019
FFED
FFFA
FFF0
0002
0006
0015
0006
0000
000C
FFE9
0006
FFCF
0001
FFFD
FFFF
FFFE
FFE2
FFEF
0005
FFF8
0000
FFFE
FFEE
000A
FFF7
FFD5
FFED
FFF2
FFEE
FFE9
FFE5
FFE9
FFF6
FFF1
FFFE
0004
FFF6
0000
FFFF
0004
0021
FFE2
0010
FFE9
FFDA
0004
FFF9
0009
0000
FFF0
000B
FFFE
FFE2
FFF4
FFF3
FFF8
0003
FFF1
FFED
FFFC
FFE4
0007
0000
FFFC
FFFB
FFF7
FFF2
FFEE
0003
000C
0006
0011
FFE9
FFFC
0006
FFE3
0000
0004
000F
FFF6
FFEB
0001
0000
0020
0007
FFF7
FFE1
0008
FFEB
FFF3
FFFA
0008
FFE5
000A
FFB1
000E
000F
000D
0004
FFFE
0006
FFF5
FFFA
0003
0010
FFFF
0000
0016
FFE6
000B
0005
0009
FFFC
0000
0009
FFED
FFCB
FFEE
FFFC
FFDE
FFE1
FFFD
FFE8
FFF5
FFF9
FFF0
000B
0004
FFEB
0007
0000
FFEB
FFFC
0018
FFF9
000E
0009
FFF7
FFFB
FFD7
FFF8
FFE1
FFED
FFF2
FFF5
FFF9
FFEF
0008
FFEF
FFFD
FFF2
FFFB
FFFB
FFFB
0000
FFEC
FFE7
FFF1
FFBE
0001
0008
0000
FFEF
000D
000A
FFE9
FFC7
0003
FFFC
FFFA
FFF0
0000
FFEC
FFFF
FFE6
FFEA
FFEA
0007
FFE5
FFF8
FFD5
FFF7
FFDD
FFCB
0000
FFF1
0001
0001
FFEB
000D
FFED
FFFA
FFEA
FFF0
FFE7
FFF0
FFFE
FFF7
000D
FFFA
000C
FFFD
FFFF
FFDB
FFE6
FFE8
000E
000A
FFFF
0003
FFEB
FFED
FFF3
FFD1
FFFD
FFF0
FFF3
0003
000C
0004
FFFF
FFF6
FFE2
0031
000D
FFF4
FFF6
000C
FFFA
FFF5
FF6B
0004
000A
FFED
0007
000D
FFFC
FFF4
FFE8
FFEA
FFE5
0000
FFFA
0001
FFD5
FFEB
FFE1
FFD9
FFFD
000C
FFF9
FFF6
FFF1
FFEE
001A
FFEF
0000
FFF9
0002
FFE7
FFE9
FFDA
0009
FFF9
FFF1
FFFE
FFFB
FFF3
FFE1
FFDF
0006
FFEE
FFEB
0005
000F
0007
FFF6
FFD4
FFF3
FFDD
FFFB
0001
000D
FFF3
FFEF
0009
0004
0019
0017
FFFB
0009
0009
FFEF
0000
FFE5
000B
000A
0004
001B
001C
0003
0006
FFEB
FFF6
FFB7
FFFE
0001
FFF8
FFD2
000F
FFE0
FFED
FFF9
000C
FFF7
000B
0003
FFEC
0006
FFE0
FFF7
FFEB
0007
FFFC
0000
FFD9
FFF0
0000
FFEB
0006
0005
FFDC
FFEB
FFE2
0008
0003
FFEE
000B
FFF6
FFE5
FFFD
FFCE
FFF5
FFF0
FFF4
000B
FFF5
FFF9
0000
FFFE
0011
FFE4
0014
FFF5
FFF3
0000
FFF9
FFE7
000C
0001
0008
FFEA
FFF9
0028
0005
FFEA
FFEC
FFFC
FFD1
FFED
FFFB
0002
FFE5
FFFC
FFF1
FFE2
0000
FFF1
FFF0
FFFB
FFD9
0007
0003
FFDD
000C
FFEC
0010
FFED
FFF0
FFDA
000D
FFF9
0006
FFED
0010
0000
FFF9
FFFB
0003
0009
FFE2
FFEC
000A
FFFE
000E
FFB9
FFF6
FFEA
FFEE
0000
FFF8
FFEC
FFEE
FFEF
0015
FFF0
0013
0009
0008
0000
0007
FFFA
0014
FFFF
0004
FFEC
000D
0018
FFE1
FFFD
FFFC
FFFF
FFE7
0010
FFFB
0013
FFDC
FFF6
FFEA
FFFB
FFFC
FFEB
FFEA
FFFF
0008
FFFE
0002
FFFE
FFF0
FFF3
FFF7
FFFB
0004
FFF0
0000
FFF4
000A
0002
FFF6
0003
FFC1
FFED
FFF9
FFED
FFFF
FFFC
0011
FFD8
FFF8
FFCB
0001
FFED
FFEB
000D
FFEC
FFED
FFDC
0006
FFE8
FFE9
0018
FFF7
0011
FFF7
FFF0
000F
000C
0006
0007
FFF6
FFFB
000B
FFE2
FFEE
FFEB
FFFD
FFE0
FFF1
FFED
0008
FFD5
FFF3
FFE7
0000
FFF3
0001
FFE7
FFF6
0007
FFF0
FFEA
0000
0001
FFF6
0011
FFFC
FFF1
FFEF
000E
0003
FFF3
FFF6
0010
000E
FFBD
FFFA
0006
FFF6
0005
FFF7
FFFF
FFEC
0000
FFE8
FFEE
FFF8
FFED
FFF4
FFFD
FFF4
FFDE
0013
0009
FFE6
0013
FFEC
FFF6
FFFD
0001
000D
FFFF
0013
0017
FFFF
0007
FFF7
FFF7
FFEB
000F
FFFB
0004
FFF8
FFDE
0016
FFEE
FFEB
000D
0013
FFF2
0000
FFEC
FFFF
FFF2
FFFB
000D
FFEA
FFF6
FFFF
0000
0000
FFF4
FFE2
0008
0009
0005
FFEE
0007
FFFB
FFCB
0000
FFEC
FFFF
000F
FFF8
000C
FFE9
FFED
0012
FFF8
FFE6
FFEA
FFD3
0002
FFEB
FFEE
0005
000A
FFFA
0027
FFED
FFF6
FFFF
0009
FFFF
0001
0009
0001
000C
FFFA
0008
FFF7
FFF6
FFFC
FFFB
FFF5
FFEC
FFDE
0018
FFDE
FFF5
0025
001B
FFEC
FFED
0010
FFFA
FFFD
000B
000A
FFF2
000B
FFF0
0012
000D
FFF5
FFFA
0000
FFF4
FFFB
000F
FFEB
001F
FFD5
FFF1
000A
FFEC
FFF6
000C
0011
0000
FFED
FFC9
000E
000D
000E
FFC6
FFF3
0004
0004
FFF7
0000
0002
0024
0001
0002
0000
0007
FFFD
000A
FFF9
0000
0001
FFF4
0006
FFFB
FFF8
000A
FFF9
0003
0000
FFD3
0008
000D
000A
001C
0011
FFEE
FFF9
0000
FFEE
FFF4
FFF7
0006
FFFD
FFEF
000E
001E
FFFA
0000
FFFD
FFF5
0007
0010
0004
FFE9
0006
FFCB
FFE8
000D
FFF5
0009
FFF0
FFF7
0001
FFF4
FFD5
0018
FFEA
FFED
FFCC
FFF4
FFED
FFEE
FFEC
FFBE
FFEA
0020
FFF9
FFF7
FFFC
FFF4
FFFF
FFFA
0003
0009
FFF9
0013
FFFC
0000
FFE4
FFFB
0004
FFEB
FFFE
FFD7
002A
FFF2
FFF1
000E
0011
FFED
FFED
0002
FFEA
FFEE
FFF8
FFEB
FFCF
FFFC
000C
0007
0002
0015
0009
0001
000D
FFFD
FFE3
0005
FFF2
FFC5
FFEB
FFF1
FFF6
FFE0
FFF7
001A
000B
0009
FFBA
FFFF
0000
FFFD
FFDE
FFF1
0004
0003
0009
FFD8
FFF5
002A
000C
FFF4
FFF5
0009
FFEE
FFF0
FFD8
0012
0023
0012
000F
000E
FFF7
0000
FFF7
FFFC
0002
FFF1
0051
000C
FFF1
FFE6
FFFC
FFEE
0010
FFF6
FFFF
FFF7
0014
FFF5
FFC6
FFFD
0001
000B
FFF6
0005
FFF2
FFFF
0012
FFF2
FFFC
0002
FFF5
FFF4
FFFE
FFF7
FFF9
FFEF
FFF7
000F
000D
FFF3
FFB8
FFF7
FFF3
000A
FFCD
0005
000F
0000
FFF5
FFCC
FFE3
0040
0015
0009
FFE6
FFEB
FFED
FFDE
FF88
FFFD
0014
FFC2
FFD5
0006
000D
FFEE
000C
FFE9
FFF1
FFFF
0003
000C
FFF2
FFF7
FFEA
FFF8
FFF6
000E
FFFF
FFF7
FFF0
FFFA
FFCE
FFFD
001B
FFF8
000E
0015
FFF0
FFF7
0000
0000
FFFC
000F
FFE9
FFF2
FFF8
FFFD
FFEE
FFE9
FFEE
0011
0000
FFFE
FFE7
000E
FFFE
0019
FFF0
0001
FFF8
FFF9
FFE7
FFED
FFF8
0011
FFF7
000C
FFD0
FFFE
0009
0013
FFF9
FFD9
0028
FFD7
FFBB
0017
FFF1
0000
FFF8
FFEC
FFF6
FFFD
002F
0007
000A
FFEE
FFEF
0005
0001
FFFB
0009
000D
FFF0
0002
FFE0
0007
0025
FFE3
FFEC
FFFA
0007
FFF5
0030
0004
FFF0
000B
0002
0000
0009
0010
FFFD
FFF8
0000
000A
000E
FFEA
0007
0004
FFF2
0009
FFF0
0010
000F
FFF4
000E
0009
FFE7
0007
FFF1
0016
FFEC
FFFE
FFF1
000D
FFFB
0005
FFFF
FFEB
FFDA
FFF1
FFFB
FFF2
0007
FFDE
0013
FFF9
0016
FFEF
0000
000A
0011
FFFC
FFF7
0009
0000
FFF0
FFEC
000C
FFED
000C
FFDC
0007
000E
FFFB
0003
FFF6
003E
000B
0012
FFF1
FFED
FFDC
0002
FFFF
0000
000E
0007
FFE8
0016
000E
FFFC
FFEF
000A
0014
000B
0016
000A
000E
000B
0010
FFF5
0000
0001
0006
0000
FFFC
FFF5
FFDB
FFED
FFF7
FFF7
0002
FFF5
000D
000C
FFF8
0011
0001
FFF6
0000
FFED
0026
0014
FFF4
FFFC
0008
0008
FFF8
0003
000B
0012
FFED
000F
FFF5
0014
FFF9
000F
FFEE
FFF4
0010
FFFD
000C
FFF1
0031
FFFB
FFE9
0001
FFFB
0000
0015
FFFB
0020
FFEF
FFF3
0006
FFF4
0003
0002
0011
FFF1
0011
FFF9
FFED
FFF6
000A
0009
0003
0007
001A
FFF3
0001
000B
0010
0008
000B
FFF7
000E
FFFE
FFF1
0009
FFEF
FFF2
FFF2
0008
0003
FFF0
000B
0011
0017
0012
0012
0010
000C
FFEC
FFED
FFF2
0001
000C
FFC7
000A
FFF1
FFF1
FFFD
000C
FFDC
0000
FFF7
0031
FFFA
0015
0006
000D
FFF5
0010
FFFB
0026
0006
FFF3
0002
FFFD
FFF2
0000
FFF9
FFFE
FFEE
0009
000A
FFF2
FFFF
FFF2
0008
0002
0002
0004
FFF8
0002
000D
FFFC
FFF1
FFF0
FFF0
0000
000D
FFEF
FFFC
FFF9
FFF8
FFD7
0018
0003
FFFF
FFFD
FFED
FFFD
000F
FFEC
000F
0003
0003
FFF6
0000
0006
FFF1
FFF9
FFFF
0012
FFFC
000B
FFFE
000B
000E
0028
FFF3
FFFA
000E
FFEB
FFF2
FFEC
0000
0000
FFF4
0012
FFE5
0012
FFEF
000B
FFFF
FFF8
0008
0001
000C
000E
FFF7
FFEC
000A
FFFA
0020
0006
000B
0003
002E
000B
0012
0016
0011
001D
0007
0015
FFFA
FFEB
0007
FFCB
FFEF
0014
0002
FFFE
FFFD
FFFB
FFEF
000C
0000
FFF7
0002
FFFF
0002
FFEC
FFD8
000B
0001
0006
FFE9
FFF5
000C
FFF3
FFF2
0000
FFEA
FFF7
0000
0012
FFED
FFF7
FFEB
001C
FFF1
0014
FFFB
0011
000D
000F
000A
0005
FFF0
FFEF
FFEE
0011
FFEF
FFF1
0004
FFFB
FFE1
FFFD
0015
000D
0018
003D
FFF9
0002
0025
0000
0001
0007
0000
FFF3
FFF6
FFEF
FFF8
000C
FFEE
FFFE
FFF1
0000
FFEE
0001
0001
FFFA
000D
0001
0006
FFF0
FFDE
0004
0017
FFF0
0008
000C
000A
0009
0008
FFE4
FFEF
FFC8
0009
000A
FFF0
0007
0000
0012
0008
FFF1
0009
0008
0004
FFF5
0006
FFFF
FFEB
FFFE
0002
FFEB
FFC9
FFFC
FFEB
0010
FFF6
FFE9
FFF9
FFF5
002F
0014
000E
001A
0007
FFFF
0001
000F
0008
0012
FFEE
FFE5
FFEE
FFF8
FFEE
FFF7
FFEE
000C
0007
0004
000A
0021
FFFD
0001
FFF4
0007
FFD4
FFF4
FFF3
FFE9
FFF0
FFF0
0005
FFF1
0007
0006
0000
FFB4
FFF9
FFEF
FFF5
FFDC
FFFA
0017
FFFD
FFFB
001A
0005
FFF1
FFF0
FFEF
0000
FFEA
0005
FFF9
FFF5
FFDE
FFE1
0010
FFE9
0011
000C
FFEC
0011
FFFB
0020
0005
0020
0008
0003
FFFE
FFF0
FFF6
0000
FFFC
FFF6
0015
000B
FFFB
FFF3
FFEB
0003
FFF9
FFFF
FFEB
FFFF
FFF3
000E
FFE4
FFFD
FFEC
FFF5
000C
0000
FFF7
FFF8
0009
FFF0
FFFB
000F
FFF5
FFE4
0002
FFF8
FFFA
000F
0004
000F
FFF0
0010
FFF7
FFED
FFD9
FFF1
FFDB
0007
FFF3
0004
000B
0000
FFF3
FFFC
FFF2
0001
001C
FFEB
FFE4
FFFC
0028
0019
0000
FFFA
FFF9
0017
FFFA
FFEB
0012
FFEF
0002
0002
0000
0003
0004
FFDC
FFEC
0009
0000
FFE4
0002
FFFA
000A
FFFE
0011
FFF0
0012
FFF9
FFEF
0004
0012
FFFD
FFFF
FFF7
FFF0
FFFA
FFEF
FFEB
FFF6
0010
0002
FFF6
000A
0021
0000
FFEE
0012
0000
FFFD
FFFE
FFC2
FFF5
FFE7
0010
0010
000A
FFF7
0002
000B
FFF4
000C
FFEF
FFFE
FFF8
0016
0011
FFF2
FFFA
FFE8
FFFD
FFFE
FFF9
FFED
0005
FFFB
000B
FFD3
FFF1
FFF4
FFE0
FFF6
000C
FFF4
FFFF
0006
000C
000A
000D
0008
FFEF
0007
FFF7
FFE8
0007
FFFC
FFF2
0011
FFFF
0000
000F
FFDB
FFFF
0000
FFEB
FFEE
FFF8
0008
FFF5
FFF7
FFE7
0012
0010
0007
0008
FFC8
0001
FFEC
FFEE
FFEA
FFED
FFD8
0003
FFFF
FFF6
0010
FFDE
FFFA
0005
0016
000B
FFEB
FFED
FFFB
FFE7
0007
FFEB
0001
000D
FFF6
FFF9
FFF9
FFEE
FFEA
0005
FFF0
000A
FFED
FFFA
FFE7
FFEF
000B
0001
0008
0000
FFF8
FFEC
FFFB
FFEF
FFEE
FFE9
FFFB
000A
FFE7
FFF5
FFE0
FFF8
0005
FFF0
000E
FFD6
000D
0016
FFEA
FFFA
FFFE
FFF2
0003
000C
FF9B
0009
FFEC
FFF2
FFFF
FFF5
0006
0006
FFFD
0003
0002
0005
FFEA
0011
000C
0016
FFF9
000D
000D
FFF1
0007
FFF4
FFFB
FFFA
0005
000C
0004
FFFC
FFF3
FFFC
0000
FFFC
FFEF
000D
0000
0006
FFF6
0006
FFF9
0007
FFE4
FFF5
000C
0008
FFE6
0005
FFF8
0004
FFFE
FFE9
FFE3
FFE2
FFE1
FFFD
0006
FFEE
0001
0009
0002
FFE0
FFF7
0000
FFE8
FFEC
FFBE
000B
FFF9
FFF4
0003
FFE5
000E
0001
FFED
FFE0
0003
FFF6
FFFC
001D
0008
0008
FFEB
FFFE
0013
FFD2
0002
FFFE
0001
0003
FFEB
0008
FFFA
FFFE
0008
FFEA
FFFD
FFF8
FFF5
0002
FFF5
FFFF
0009
FFEB
0008
0006
FFEA
0003
0000
0002
0002
000D
0000
000A
FFFE
FFF8
FFCC
FFF5
0001
FFEF
FFF4
FFDE
0000
0019
FFF7
FFE5
0005
FFFC
FFEC
0011
FFB8
FFFA
FFFE
FFE5
FFF7
FFC3
FFF8
000F
FFF8
0002
0015
FFEF
0009
0012
0000
FFFA
FFF3
0004
0009
FFE9
FFE9
FFF6
FFF7
FFFF
FFFA
FFFC
FFFC
0000
FFFF
FFE3
FFD6
000A
FFF8
FFFD
FFF2
FFEF
FFF9
000A
FFEA
FFEF
FFF3
FFED
FFF9
FFF8
FFF3
FFF3
FFF3
0003
0016
0005
FFE7
0000
FFEA
0008
FFEC
FFF4
0013
0005
FFFD
FFEB
FFFA
0002
FFDE
0006
FFD2
FFFD
000F
FFF0
0005
FFBC
FFEB
FFFB
0000
FFF5
0006
FFDF
FFEA
000A
FFF7
0000
FFED
0008
FFFB
FFE9
FFFB
0007
000A
FFFE
FFEA
FFE3
0011
FFEA
FFFF
FFFA
FFDB
FFED
FFFD
FFED
0000
FFDF
FFFB
FFF9
FFFC
FFF7
0015
000A
0005
FFFE
000A
000A
FFF9
FFFB
0007
FFEC
FFD7
FFEC
FFF8
FFEF
FFF3
FFE1
0006
0001
0012
FFFB
FFDD
0008
FFEF
FFE6
000E
0000
000A
FFF3
FFFB
FFE0
0005
0006
FFFD
FFE5
FFFB
FFEF
FFEA
FFA8
FFE5
0001
FFF8
FFCD
FFF6
FFDB
FFF4
FFEE
000B
FFE0
FFEB
FFC1
FFFD
FFFB
FFEB
FFFD
FFC8
FFF1
FFF0
0004
000A
FFFA
FFFF
0003
FFF2
0001
FFE6
FFF5
0000
FFFC
FFF1
FFF6
FFED
FFFA
FFF4
FFFD
FFCE
FFDD
FFEC
0003
000B
FFE2
FFF7
FFF5
000A
FFEE
FFD9
0000
FFE9
FFEE
0019
0000
FFF1
FFF1
FFF3
FFE2
0031
FFF7
FFFA
FFF4
0009
000D
FFF3
FF8B
FFE9
0006
0005
FFE1
0005
0006
0011
0001
FFF7
FFCA
FFEC
FFB9
0006
FFE3
0006
FFE3
FFE8
0003
000D
FFED
0003
0013
000C
FFFE
FFE8
FFEE
FFFB
0004
FFEE
FFFE
FFDB
FFEA
FFD7
0006
FFE7
FFF9
FFE7
FFDA
FFE0
FFEB
0009
FFEC
FFFE
0008
FFEA
FFF2
FFCD
FFF4
FFF5
FFE0
0008
FFED
FFED
FFF8
0006
000A
0024
FFFF
FFEE
0000
0010
FFFF
FFF7
FFFE
FFFC
FFFD
FFFF
0004
0007
0011
FFF8
FFEE
FFF4
FFE4
0008
FF9F
FFFD
FFE2
0003
0000
FFF6
FFFC
FFF9
0011
0000
0006
FFED
0004
FFF9
FFED
FFEE
0010
0001
FFEF
FFE1
FFEE
0000
FFF3
FFF1
0018
FFEB
FFD6
FFE3
FFFD
FFF0
FFF4
FFEF
0005
FFFF
0013
FFCE
FFE7
FFEE
0008
0022
FFEE
0010
FFFA
FFE6
002E
FFF9
0008
FFFF
FFE2
FFFB
FFF4
000B
0021
0004
FFFB
0008
0007
000C
FFF3
0009
FFE3
0009
FFD4
000A
FFA4
0020
FFD7
FFF6
FFFB
0000
0006
0006
0004
0005
FFFD
000A
FFEE
FFF2
0000
FFF5
FFF5
0009
0005
FFD1
0000
0007
FFE8
FFE5
000D
FFF2
FFC6
0001
000B
0008
FFF1
FFF2
0016
0000
0002
FFF1
FFF3
0012
0001
0026
FFE7
0009
FFDE
0004
0010
FFF8
0010
FFFF
FFF9
0000
0003
FFF9
001B
0006
0007
FFFE
000E
0030
FFFF
0006
FFEF
0001
FFF5
0000
FF99
001A
FFE4
FFF0
0000
000F
FFEB
FFEF
FFF2
FFF0
FFE4
FFEF
FFFA
FFF3
FFEF
0001
FFFF
FFF5
FFED
FFF4
FFF9
FFFC
0002
FFE3
000B
FFE3
FFAF
0006
FFF9
000C
FFFF
FFF6
001B
FFFB
FFFC
000D
FFE8
0000
FFFD
0008
000C
FFEB
FFDA
0006
FFFD
FFE5
001D
FFFD
FFE6
000F
FFF5
FFEF
0000
0008
0009
0000
0000
0019
FFFB
FFDF
FFEE
FFF6
FFE9
FFFD
FF9D
0021
FFF5
FFE6
FFE7
FFFF
FFF1
0008
FFF1
FFF3
FFF3
0004
FFF0
FFF5
0000
FFF6
FFF2
0008
0003
0003
0006
0009
FFE8
0000
0014
000A
FF91
FFE4
000F
0006
FFFB
000F
FFFF
FFE8
FFF3
000C
FFE1
FFFB
FFEB
FFD8
FFED
0009
FFFA
FFF2
FFF9
FFD4
0004
FFFD
FFF0
FFFD
FFF6
FFF0
FFFA
000D
FFF8
000E
000A
0011
FFEA
FFF6
FFED
0007
0010
FFEE
FFBD
0018
FFFC
0007
000B
FFF4
FFDD
0009
FFEC
FFFE
000B
FFF5
0008
0008
FFFF
000B
000B
FFEA
0000
0001
000E
0007
0000
FFF4
FFF5
0000
FFB9
0000
0005
0001
FFEE
0000
001A
FFF0
FFF3
0011
0001
FFE8
FFFD
FFCB
FFFC
000B
0003
0010
FFF7
FFC7
0010
000F
FFFA
FFFD
FFF2
FFF8
001E
0017
000B
0008
0003
0010
FFE1
FFFD
FFEB
000E
FFF7
0001
FFAA
000A
FFF2
FFF7
000C
0005
0007
FFE6
FFEF
FFF8
000C
FFF3
0006
FFFE
FFF0
0005
000E
FFF2
FFFD
0001
0007
0003
FFF9
FFF7
0013
0016
FFB2
0009
FFF3
0002
FFF8
0011
000C
0005
FFEE
0006
FFF8
FFE5
000B
FFB4
FFF6
FFF1
FFE5
FFED
FFF1
FFE1
000E
FFEF
FFFB
FFFB
FFE4
FFF6
0012
FFF6
FFF6
FFF0
FFE9
FFF4
FFF8
FFF1
FFFC
0010
FFEF
000B
FFDA
001C
0007
FFEB
FFFB
0004
FFF4
FFEF
FFEF
FFFB
000E
FFFA
0007
FFF2
0008
0008
000E
FFEA
0003
FFEB
000C
000F
0007
FFFF
0008
000F
FF9F
FFF5
FFFE
FFEA
FFFC
0004
0013
000A
0003
0012
FFFB
FFF5
FFF8
FFC2
FFFA
FFEA
FFEE
FFEC
FFE9
FFF8
0004
FFEE
FFF1
FFE1
FFEC
0001
FFEF
0015
FFFE
0003
001A
0007
FFEE
0002
0000
FFF3
0000
0000
FFAA
001C
000A
FFEC
FFF0
FFF2
FFFE
0003
FFEE
0000
FFED
FFEA
FFF6
FFEE
0003
FFED
0010
FFEE
FFF7
0009
0007
0022
0006
0002
FFEC
FFDC
FFAE
0006
000C
FFEC
FFF4
FFFA
FFFE
FFE8
FFF5
0000
FFF6
FFED
0008
FFC6
000E
FFFA
0008
0000
FFCE
0000
000F
FFFC
0004
FFD4
0000
0004
FFEE
0016
0002
0012
001E
0009
FFF1
0006
0003
FFFD
0005
000C
FFEA
0032
000E
000C
FFF3
FFF0
FFFB
0000
000A
FFFC
FFFB
0004
FFFC
FFEB
FFE7
FFED
0009
0006
0018
FFEC
0006
0015
0012
000C
001C
FFF2
FFC5
0017
FFED
0000
0008
000F
0001
0005
000F
FFF0
FFF6
FFFE
0011
FFF7
FFFA
0003
FFFD
0007
FFD8
0001
002D
FFEF
0011
FFFC
0008
FFFC
0002
FFB7
FFE4
000C
FFCE
FFF5
0011
000A
0017
0013
FFFC
0010
FFE8
004F
FFFB
0011
FFF5
FFF6
FFFC
0010
0003
0009
FFF6
FFF1
FFE4
FFC9
FFEC
0002
FFE1
000A
0012
0011
0006
001C
FFEE
FFFD
0013
000A
0016
001D
FFF1
000D
FFFB
FFFE
0001
FFF8
FFEB
FFD1
FFED
FFEF
0002
0012
0004
0009
FFFA
FFF0
FFDF
0003
000D
0002
FFF2
FFBF
FFEF
000D
FFFF
0007
FFD6
0011
FFE1
FFD7
FFF9
FFE8
0013
0002
0017
FFFE
0000
000F
FFE6
000A
0007
0000
FFFE
FFF9
0003
FFF2
0000
000C
0009
FFEE
0001
0020
FFE4
FFE8
0015
0011
FFFD
0013
FFFA
FFF0
0008
0003
FFDC
0021
FFF7
0010
0004
0012
FFFA
FFEE
FFED
FFDB
000C
FFFF
FFFF
000F
0007
FFEC
000B
FFF1
FFF1
000F
0008
FFF3
0011
FFED
FFFD
0003
FFFC
FFFF
FFF5
FFFB
FFE6
FFDB
0000
000C
0022
0019
FFEA
0003
0003
FFEF
FFEF
FFF0
0010
FFF3
FFF9
0000
FFF7
FFF8
000C
0012
0007
FFEB
0006
002F
FFE9
0012
0002
0003
FFFA
FFCC
0013
FFF9
0028
0008
0001
FFFA
0003
FFF3
000E
FFEE
0000
0007
FFED
0003
FFF8
FFF6
FFEE
0002
FFF4
FFF8
FFF4
FFEE
0003
000A
002B
000B
0017
000A
0005
FFEA
FFF8
0008
0004
FFF2
0004
FFFD
0006
FFFF
0010
0000
FFFB
0014
FFFD
0007
000A
FFEF
0012
FFF8
FFF9
FFFD
FFED
000D
0012
0006
0011
FFF4
FFFF
0022
000E
0013
0010
0007
FFEE
0000
0014
000D
0026
000D
0008
0014
000A
FFED
FFF0
000A
0032
FFF2
FFFD
0004
000C
FFE4
FFEB
FFF4
000E
0002
FFF5
FFFB
FFFD
FFEE
FFF3
FFF0
0004
0005
FFFE
FFF7
FFF2
FFF5
0013
000C
0008
FFF3
FFF0
0001
0014
0008
0000
FFF7
FFF2
0018
FFFC
FFFE
0003
000F
FFF4
0002
0010
FFF4
FFF8
FFEB
FFF4
0013
0000
FFF2
0018
FFFF
FFFC
FFEC
0009
FFF5
0003
000E
0036
FFFA
FFFE
0013
FFF4
0014
FFEE
0011
000B
000C
FFFE
0002
0008
FFEB
000D
0005
000E
FFF1
FFFE
0012
0005
0000
FFEF
0008
FFF0
0014
FFF3
FFEF
FFF8
0000
FFFA
FFF2
FFFC
0011
0004
FFED
0008
FFF5
0007
0002
FFF4
FFEF
FFFA
0001
FFFA
FFEF
FFF0
0009
FFFE
0000
001B
FFF1
FFF0
FFFE
000E
FFDE
0003
0010
0004
FFEF
FFF8
FFF5
FFF0
FFFD
0040
FFF4
FFE9
FFFA
FFEF
FFF5
FFEB
FFFB
002F
0011
FFF3
FFFD
0011
000C
0000
FFF2
FFEC
FFFC
000C
FFFC
FFFC
FFF7
FFF5
0009
0012
002A
FFFF
0001
FFDE
0010
FFFD
0005
0005
FFED
FFF3
000B
0006
FFEC
0007
FFF8
FFF3
0000
FFF3
0002
0008
FFED
FFE5
0009
FFF2
0011
FFFF
FFEE
FFF2
FFED
0011
FFED
0002
0006
FFED
FFE7
FFEB
0010
FFF3
0004
0004
0008
FFE4
FFED
0012
0009
FFF6
0011
0011
0004
000E
FFED
FFFF
0000
0008
000C
FFFB
0001
000B
0007
0011
FFFE
FFF6
FFF7
0007
FFDC
FFFE
FFF5
0015
002D
FFF1
FFFD
0002
FFFF
FFF8
FFF0
0004
FFF3
FFF8
0012
000A
FFE8
000B
0000
FFDE
0008
FFFD
0004
000A
FFF7
001D
0003
0000
FFD7
0004
FFC6
0008
0016
FFEC
FFF7
000A
001D
000C
0004
0000
FFF5
FFB0
FFF7
0000
FFF9
FFE3
000E
002B
0006
FFEC
000C
FFF1
0003
000C
FFFC
FFF5
000B
0002
FFF7
000A
FFDA
0015
0000
FFFA
FFFC
000F
FFF3
FFF6
0027
0027
FFE9
0003
0022
0017
0012
000F
FFF0
FFF9
0007
0001
FFDF
000B
0012
FFDB
000F
0000
FFF1
0005
0001
FFFE
0000
FFEE
0026
FFF1
FF9F
0025
0013
FFF4
FFF3
0009
000A
FFFB
FFF9
0009
FFE6
FFC0
FFF6
0003
FFF2
FFEA
0010
001D
0004
0006
0005
0002
0011
0004
FFC0
0010
0000
FFF1
0002
000F
FFED
FFDE
0007
FFF0
FFFD
000D
0007
0019
0013
000B
FFF1
001D
0035
0007
FFF9
000D
FFED
FFF2
FFFA
FFFB
0006
0017
FFF5
FFE3
FFFC
0003
0015
0004
FFFE
0000
FFEA
0000
FFEC
0013
FFE2
0018
FFF8
0006
FFFD
0001
0017
FFFC
0007
0017
0000
FFEC
FFEE
FFF5
0010
0009
000B
0028
FFF2
FFF4
FFEF
FFF6
FFFC
FFEC
FFC3
FFFA
FFDA
0011
FFF6
FFEE
FFDF
0014
FFEA
FFF7
0017
FFEC
FFEF
FFE1
0011
0018
0015
0019
FFFE
0013
FFED
0000
0010
FFF7
0008
FFF9
FFFA
0010
FFE7
FFE6
FFF8
000D
0011
000D
FFE8
FFF2
0008
0001
FFF7
000D
000F
FFDB
000C
FFF1
0011
FFFA
0009
0002
0004
0008
FFF1
0001
0007
0004
FFF7
FFE9
FFFB
0016
FFEE
0001
FFF4
0001
0016
0012
FFB0
0002
0002
0019
0001
FFF2
FFD5
FFF2
FFEF
FFFE
0000
FFFB
FFE7
FFFE
0023
FFFE
FFF0
FFF4
FFF9
FFE0
0007
FFF6
FFF5
000A
0003
001A
FFFB
0007
FFFA
0009
FFED
FFFE
FFF4
FFE0
FFEA
0007
FFF9
FFEE
0002
000F
000D
FFFF
000C
FFF8
FFF9
FFF0
0018
000E
FFE4
0006
FFE6
0008
0001
FFF3
FFFB
0007
FFEA
FFFD
FFE5
FFF9
000F
FFED
FFEA
0005
FF99
FFFB
FFFB
FFF8
FFF2
FFF0
FFFA
0013
0009
FFF2
0012
FFFD
000C
0010
0011
0016
0008
0019
FFEF
FFD8
0003
0012
FFF2
0007
0002
FFFE
FFFC
FFF2
FFF6
0010
FFE2
FFFA
FFE6
FFEF
FFFB
0000
FFFC
FFEA
FFF3
FFE9
0009
FFEF
FFF9
FFF2
FFD1
FFE9
000B
FFEA
FFFA
0009
FFDC
FFFF
FFEB
0000
FFF6
FFF6
FFE9
0011
0000
FFF8
FFF7
FFF0
0007
0014
FFDE
FFEA
FFF4
0010
FFFE
FFF1
FFEB
0000
FFEB
0007
0002
000B
FFF4
000A
FFE4
0017
0010
000B
FFFA
FFE5
FFEC
FFE8
FFEF
FFF5
FFF8
FFED
FFFA
FFFC
FFE0
FFF5
FFF2
FFF3
0002
FFF7
FFEF
FFEF
FFFF
0000
FFF6
0000
0003
FFFC
FFFA
FFE9
FFF3
FFFB
0012
0004
FFE8
0015
FFCF
FFFA
FFDF
FFF8
000C
FFD9
FFFB
0014
FFDD
FFE5
FFFC
FFE2
FFF6
FFF9
FFFD
FFFD
0007
0009
FFE8
FFDF
0002
000A
FFEA
FFED
000D
0006
FFE5
0007
FFD0
000F
0008
0007
FFEC
FFE2
000A
FFE9
0009
0005
FFF0
FFFD
FFE9
FFFD
FFF9
FFF5
FFEF
FFFB
0006
FFFD
0005
0000
FFF6
FFF3
FFF7
FFF0
FFEC
FFF3
FFFE
FFFF
001E
FFF4
0001
000C
FFF2
0005
FFE8
0000
FFE9
0006
FFF7
0009
0004
0035
000F
FFFC
FFEE
0004
000C
FFF3
0000
FFF7
0012
0000
FFEE
FFDB
FFF5
FFFE
FFF7
0001
0008
FFF9
0003
000F
FFC4
FFEC
FFFE
FFEC
FFFF
FFE6
FFEA
FFF8
FFFD
FFFC
0008
000C
FFF1
FFFB
0008
FFE9
FFC9
0007
FFFE
0000
0003
FFFB
FFEB
FFEC
FFF1
FFF7
000A
FFEE
FFF9
FFE8
0015
FFFC
0009
0000
FFFB
FFEB
FFD5
FFF2
FFE0
000E
FFFD
FFF3
0000
0021
0000
FFFC
FFE8
FFDE
0003
FFF3
000B
FFEB
0002
000B
FFF4
FFD6
FFF2
FFFA
FFF0
0000
0018
FFF7
FFED
000A
FFB6
FFF8
FFF1
FFD2
000E
FFF1
FFF0
FFEC
0006
FFFB
FFEA
FFEF
0007
FFFA
000A
FFFD
FFE0
FFE7
0000
FFFC
FFE7
FFE9
0009
FFFB
FFCF
FFE9
FFEC
0009
0009
0003
0027
FFE6
FFEF
FFED
FFED
FFF4
FFCD
FFF8
FFF6
FFF1
FFF2
FFED
0001
0015
FFE5
FFF1
FFCE
FFE5
FFF9
0001
002F
0007
0008
FFE6
0000
FFDA
001D
FFFB
FFF4
FFEC
FFFC
0002
FFFA
FF9E
FFE2
FFFC
FFE4
FFDD
FFFA
FFEF
0000
0004
FFFD
FFD3
FFE9
FFDC
0008
FFF7
FFE5
FFE3
0000
FFF9
FFF9
FFF6
0000
FFE0
FFEF
0010
FFEE
FFF8
FFF0
FFFC
FFF1
FFF4
FFFD
FFEB
FFE7
FFE5
FFFD
FFEC
FFD0
FFEF
FFFE
0007
FFFB
FFF9
FFF7
FFF6
FFEC
0000
FFB4
FFF6
FFEC
0003
001B
FFF9
0005
000D
FFF9
FFE9
001C
FFE7
FFF8
FFF7
FFE7
FFFF
0008
FF87
FFF4
FFF7
FFFA
FFCA
FFFB
FFE1
FFE6
FFEA
FFF4
FFD7
0005
FFD7
000E
FFF0
FFF9
FFF4
FFFA
FFEF
0004
FFF1
FFE8
000B
FFF3
0005
FFDB
FFFD
FFFE
0005
FFF8
0003
FFF4
FFEA
FFD2
FFEF
0000
FFF8
FFE8
FFD7
FFDE
FFE3
FFF8
FFFA
FFF7
000B
FFE8
FFFF
FFDA
FFF6
FFFE
FFF9
0019
FFF7
FFFD
FFF2
0009
001C
001D
FFD8
FFF0
0001
FFED
0003
0000
000B
0000
FFF8
0005
FFF2
FFF8
FFED
FFEE
FFEC
FFEF
FFEF
FFEC
FFDA
0010
FFE3
FFFF
FFFD
000A
FFF7
FFF7
0000
FFE2
FFFC
0002
FFF9
0000
000D
FFF6
FFFD
FFFA
FFFE
FFE0
FFEC
FFDE
000F
FFE6
000C
FFDF
FFED
0005
FFF9
000A
0009
0002
0006
FFF4
FFF2
FFF8
FFED
FFF9
FFE0
0000
FFFF
FFFA
0016
FFE9
0022
FFFC
FFCA
FFEA
FFEE
FFFC
FFFE
FFEF
0017
0018
000F
000F
0006
0000
FFEA
FFEB
0002
FFF6
FFF6
FFF2
FFCD
000B
FFF4
0005
FFFA
0011
FFF6
FFF3
0001
FFF0
0010
000B
FFFC
FFF8
FFF9
0003
0008
FFFB
FFF3
FFD6
000E
FFF7
FFF7
FFD9
000E
FFEC
FFDC
FFEB
0000
FFF0
FFE7
FFEF
0010
0001
0004
0000
FFF2
FFE4
FFEF
FFEE
FFF4
0005
0003
0003
0014
000B
FFCC
FFF2
FFF8
FFFB
FFEC
FFFD
000E
0011
0007
FFE8
0015
0021
FFE7
0005
FFF9
0000
FFFD
FFF1
FFCC
FFFA
0000
0011
FFEF
000E
0004
FFF1
FFEE
FFEF
FFF5
0002
0008
0002
FFFD
0004
FFFA
0002
000B
FFDE
FFFE
0001
FFFC
FFD8
002D
FFE6
FFE2
FFFE
000F
FFFA
FFF3
000B
0002
FFF2
FFF4
0000
FFEE
FFF0
FFED
FFE4
FFFB
FFF0
FFDB
FFF2
0002
FFF3
FFDE
FFFE
FFEC
000B
0007
FFFC
0007
0010
FFFA
FFFE
000C
0006
0000
FFFD
0006
0002
FFFC
FFEE
FFAF
0003
FFFD
000E
0000
FFF8
FFE1
FFE8
FFEB
0007
FFF4
0008
FFED
FFEE
FFF9
0006
FFDC
0008
0007
0001
0000
000C
FFF3
FFFD
0017
FFE4
FFDA
0001
0008
0010
FFFB
0006
000C
0003
FFFD
0017
FFEF
0011
0010
FFF0
FFED
FFFC
FFE6
FFFF
0008
FFC7
FFDC
FFED
FFF8
FFF8
FFF8
FFEE
0008
000A
FFFA
FFEC
FFF3
0002
FFF4
FFE8
FFE7
0004
0002
000C
FFB4
001A
0003
FFF3
FFFE
0003
0004
FFFF
000C
0008
FFEF
0008
0010
FFF7
FFE8
0008
FFFE
FFFF
FFF5
FFF2
0007
0012
0007
FFF8
0004
FFFE
FFCE
0003
FFF8
FFEB
FFE7
FFE9
0007
FFF2
FFE1
FFF9
FFFD
0009
FFF1
FFD4
FFED
000D
FFF1
FFF5
FFFF
FFD1
FFDA
FFF1
0011
0005
FFF8
0001
FFF2
001A
001C
FFFA
FFFB
000C
FFFE
000F
0009
FFEC
0008
000F
FFA5
0018
FFED
FFF2
FFFC
FFF5
FFF4
0002
FFF1
FFF6
FFFE
0008
000A
FFF4
FFE3
FFFF
001F
FFFE
FFE5
FFEC
FFF0
0010
0009
FFED
0017
000D
FFBF
FFEE
0008
FFF3
FFE7
FFF1
0016
0003
FFFA
0006
0005
FFE9
FFEC
FFDB
0000
FFF5
FFF7
FFFE
FFF2
FFE6
FFF5
FFED
FFE3
FFE2
FFF1
0009
FFF3
0009
FFEC
FFFA
0003
0018
FFF6
FFF2
FFFE
0001
0005
000A
FFA9
0050
001F
FFF4
0001
FFF3
0008
FFFF
FFFF
FFE6
FFFE
FFF4
FFF1
FFF5
FFFA
FFF5
0005
000A
FFE3
FFF1
0002
FFFE
0014
FFFD
FFFC
001A
FFCD
0004
000E
0002
000A
0002
0016
0009
FFFE
0019
FFFD
0002
FFF8
FFC3
FFE7
FFF7
0003
FFFB
FFDE
FFFE
000E
0009
FFFB
FFF2
000A
FFED
FFE0
0028
FFFD
FFF6
0005
0028
0003
FFEE
0009
0002
FFFD
0003
FFA7
003E
0009
FFED
FFF7
FFF1
0000
0010
000B
000E
000C
FFEF
FFEC
FFF7
0009
FFDC
0029
0000
FFFF
FFFF
0011
0027
0003
FFFE
FFFA
FFDD
FF9E
0005
FFFA
FFFF
FFF8
FFF7
FFE1
0001
0003
0015
0014
FFF0
FFF7
FFE6
FFEA
FFF8
FFEF
FFF1
FFDC
0000
FFDC
0001
FFF5
FFEE
000B
0005
FFDF
000E
FFEB
FFFE
000E
000F
FFF1
FFFA
000E
0000
0009
000C
FFE8
0051
0008
0006
FFEF
FFF6
FFF3
0010
FFFD
0009
0008
FFFE
FFEB
FFEC
FFE6
FFCF
0000
000F
FFF6
FFFA
0008
FFEA
FFF0
FFF9
0005
FFCE
FFD5
0009
FFF4
0000
0000
0005
FFF4
FFF5
0007
FFF4
FFF9
FFF3
0005
0004
FFFA
FFEF
0009
FFFD
FFF5
FFDA
FFDF
FFFE
FFEE
FFEF
0006
FFF2
000A
FFCE
FFCE
0023
FFDD
000D
FFF9
000D
0001
000F
000D
FFFF
FFF3
0064
FFEF
FFE9
000B
000D
FFF4
FFEC
FFFB
0010
0003
FFF4
FFFC
FFE0
FFFA
FFE2
FFE9
FFF5
FFFB
FFF6
FFEA
FFD9
0000
0005
FFFA
FFFE
FFCF
0028
FFEB
0015
FFEE
0014
000B
FFEB
FFFE
FFD7
FFFA
0000
0007
0008
FFF4
0000
FFF9
FFF1
FFEB
FFFE
0013
0010
FFF3
0003
FFFB
0004
0024
0004
0005
0020
FFFD
FFE1
FFEE
0013
000B
0019
000E
FFF0
0000
0027
000C
0005
FFF1
FFF0
FFFE
000B
FFFC
0000
FFF6
FFFA
FFEE
FFB4
FFF7
FFD1
FFE8
0004
FFF6
0001
0000
FFF6
FFFE
FFF7
FFDC
FFF1
FFEA
FFFE
0004
FFF8
FFFD
0005
0011
FFF1
FFE4
FFDA
0003
FFFA
FFEC
0005
FFED
FFFA
FFFB
FFF8
FFF2
0000
0034
FFF5
FFFB
FFFA
0013
FFEC
FFEF
FFFA
0014
000E
FFE9
FFDE
FFF7
FFFE
0013
FFFA
FFFC
000C
0017
FFF1
000F
0006
FFF6
0010
FFFE
FFED
FFFC
000D
0014
FFEE
0011
FFF6
000D
0016
0015
0014
0013
FFF0
0009
FFF5
0009
0000
002A
0001
FFF6
0004
0008
FFF7
0006
0011
FFEC
FFFC
0006
FFE5
0007
0006
0006
FFF5
FFEE
FFF5
FFF2
FFF0
000F
0011
0041
FFEB
0016
0003
FFFC
000C
FFFA
FFF8
0012
000B
FFF5
0001
000C
0011
000C
000B
0008
FFF2
FFFC
FFFA
0007
000F
FFEB
0010
0002
0006
000F
FFED
000B
0004
0000
FFF2
000C
0014
FFED
FFF6
0000
FFFE
FFF4
FFF5
FFF2
FFF2
0025
0001
0008
FFEE
FFEE
0004
0006
0002
0034
000E
FFF2
FFF0
0000
FFE6
FFF7
000A
FFF6
0015
FFFD
0004
0012
FFEE
FFFC
FFF5
FFF9
0014
0000
FFF4
FFF9
0002
000A
0010
0003
FFFD
0008
FFFE
FFEC
000F
FFFA
0013
FFEA
000B
0021
0007
000A
FFED
000D
000A
0001
FFFC
0006
FFF3
FFED
0004
FFEC
FFCC
FFEE
0000
FFF5
000C
0011
FFF4
FFF8
FFFA
FFFF
000F
FFEF
000C
0006
FFFA
FFEE
0011
0014
FFF0
0003
FFF2
FFEB
0007
FFEA
FFFD
0004
FFFD
0014
FFEE
0009
FFF7
0002
0012
0005
FFB6
FFF1
FFED
FFCF
000B
FFEE
FFF2
0002
000D
000F
000D
000D
FFF2
FFF6
0002
FFED
FFF6
0030
0001
0007
000C
FFFD
0009
FFFE
FFF5
0016
FFF9
0010
FFE9
FFFA
FFD8
0009
FFF0
FFF2
FFEA
000B
FFF3
0008
FFF2
FFFE
000D
FFF6
FFF8
0009
0013
0015
0009
0023
FFEB
FFF8
FFFB
FFEC
FFF6
000B
FFEF
FFF8
FFF1
0006
0008
FFF4
0010
FFEE
0007
FFE9
000F
FFFC
0004
FFF6
000D
FFDA
FFFF
FFFB
FFE8
0002
FFF7
FFFE
0000
FFFF
000D
FFDF
0000
002B
FFF4
FFFE
0013
FFF2
000F
000F
0014
FFFB
000C
0012
FFCF
0014
FFEC
0008
0000
0000
FFEC
FFF8
FFDA
FFFC
FFF6
002D
0002
FFEE
0007
FFF4
0002
000A
0006
002A
000A
FFF7
000C
0012
000E
0005
FFF2
000C
FFF3
FFE9
FFF4
FFF5
FFF3
FFE4
FFFA
FFFA
FFDF
FFF8
0000
0023
0007
FFF9
0002
0008
FFDF
0008
FFED
FFF6
0014
FFF9
000E
FFF1
FFF3
0029
FFF7
FFE1
FFEB
0006
0005
0005
0005
FFF1
FFEB
000C
FFDA
FFF6
FFA7
000A
000D
0013
FFE6
0003
FFE0
FFF8
0004
0019
FFF0
FFD0
0005
FFFB
FFEA
FFE9
